node {
  name: "global_step/Initializer/zeros/shape_as_tensor"
  op: "Const"
  attr {
    key: "_class"
    value {
      list {
        s: "loc:@global_step"
      }
    }
  }
  attr {
    key: "_output_shapes"
    value {
      list {
        shape {
          dim {
          }
        }
      }
    }
  }
  attr {
    key: "dtype"
    value {
      type: DT_INT32
    }
  }
  attr {
    key: "value"
    value {
      tensor {
        dtype: DT_INT32
        tensor_shape {
          dim {
          }
        }
      }
    }
  }
}
node {
  name: "global_step/Initializer/zeros/Const"
  op: "Const"
  attr {
    key: "_class"
    value {
      list {
        s: "loc:@global_step"
      }
    }
  }
  attr {
    key: "_output_shapes"
    value {
      list {
        shape {
        }
      }
    }
  }
  attr {
    key: "dtype"
    value {
      type: DT_INT64
    }
  }
  attr {
    key: "value"
    value {
      tensor {
        dtype: DT_INT64
        tensor_shape {
        }
        int64_val: 0
      }
    }
  }
}
node {
  name: "global_step/Initializer/zeros"
  op: "Fill"
  input: "global_step/Initializer/zeros/shape_as_tensor"
  input: "global_step/Initializer/zeros/Const"
  attr {
    key: "T"
    value {
      type: DT_INT64
    }
  }
  attr {
    key: "_class"
    value {
      list {
        s: "loc:@global_step"
      }
    }
  }
  attr {
    key: "_output_shapes"
    value {
      list {
        shape {
        }
      }
    }
  }
  attr {
    key: "index_type"
    value {
      type: DT_INT32
    }
  }
}
node {
  name: "global_step"
  op: "VariableV2"
  attr {
    key: "_class"
    value {
      list {
        s: "loc:@global_step"
      }
    }
  }
  attr {
    key: "_output_shapes"
    value {
      list {
        shape {
        }
      }
    }
  }
  attr {
    key: "container"
    value {
      s: ""
    }
  }
  attr {
    key: "dtype"
    value {
      type: DT_INT64
    }
  }
  attr {
    key: "shape"
    value {
      shape {
      }
    }
  }
  attr {
    key: "shared_name"
    value {
      s: ""
    }
  }
}
node {
  name: "global_step/Assign"
  op: "Assign"
  input: "global_step"
  input: "global_step/Initializer/zeros"
  attr {
    key: "T"
    value {
      type: DT_INT64
    }
  }
  attr {
    key: "_class"
    value {
      list {
        s: "loc:@global_step"
      }
    }
  }
  attr {
    key: "_output_shapes"
    value {
      list {
        shape {
        }
      }
    }
  }
  attr {
    key: "use_locking"
    value {
      b: true
    }
  }
  attr {
    key: "validate_shape"
    value {
      b: true
    }
  }
}
node {
  name: "global_step/read"
  op: "Identity"
  input: "global_step"
  attr {
    key: "T"
    value {
      type: DT_INT64
    }
  }
  attr {
    key: "_class"
    value {
      list {
        s: "loc:@global_step"
      }
    }
  }
  attr {
    key: "_output_shapes"
    value {
      list {
        shape {
        }
      }
    }
  }
}
node {
  name: "global_step/IsVariableInitialized"
  op: "IsVariableInitialized"
  input: "global_step"
  attr {
    key: "_class"
    value {
      list {
        s: "loc:@global_step"
      }
    }
  }
  attr {
    key: "_output_shapes"
    value {
      list {
        shape {
        }
      }
    }
  }
  attr {
    key: "dtype"
    value {
      type: DT_INT64
    }
  }
}
node {
  name: "global_step/cond/Switch"
  op: "Switch"
  input: "global_step/IsVariableInitialized"
  input: "global_step/IsVariableInitialized"
  attr {
    key: "T"
    value {
      type: DT_BOOL
    }
  }
  attr {
    key: "_output_shapes"
    value {
      list {
        shape {
        }
        shape {
        }
      }
    }
  }
}
node {
  name: "global_step/cond/switch_t"
  op: "Identity"
  input: "global_step/cond/Switch:1"
  attr {
    key: "T"
    value {
      type: DT_BOOL
    }
  }
  attr {
    key: "_output_shapes"
    value {
      list {
        shape {
        }
      }
    }
  }
}
node {
  name: "global_step/cond/switch_f"
  op: "Identity"
  input: "global_step/cond/Switch"
  attr {
    key: "T"
    value {
      type: DT_BOOL
    }
  }
  attr {
    key: "_output_shapes"
    value {
      list {
        shape {
        }
      }
    }
  }
}
node {
  name: "global_step/cond/pred_id"
  op: "Identity"
  input: "global_step/IsVariableInitialized"
  attr {
    key: "T"
    value {
      type: DT_BOOL
    }
  }
  attr {
    key: "_output_shapes"
    value {
      list {
        shape {
        }
      }
    }
  }
}
node {
  name: "global_step/cond/read"
  op: "Identity"
  input: "global_step/cond/read/Switch:1"
  attr {
    key: "T"
    value {
      type: DT_INT64
    }
  }
  attr {
    key: "_output_shapes"
    value {
      list {
        shape {
        }
      }
    }
  }
}
node {
  name: "global_step/cond/read/Switch"
  op: "RefSwitch"
  input: "global_step"
  input: "global_step/cond/pred_id"
  attr {
    key: "T"
    value {
      type: DT_INT64
    }
  }
  attr {
    key: "_class"
    value {
      list {
        s: "loc:@global_step"
      }
    }
  }
  attr {
    key: "_output_shapes"
    value {
      list {
        shape {
        }
        shape {
        }
      }
    }
  }
}
node {
  name: "global_step/cond/Switch_1"
  op: "Switch"
  input: "global_step/Initializer/zeros"
  input: "global_step/cond/pred_id"
  attr {
    key: "T"
    value {
      type: DT_INT64
    }
  }
  attr {
    key: "_class"
    value {
      list {
        s: "loc:@global_step"
      }
    }
  }
  attr {
    key: "_output_shapes"
    value {
      list {
        shape {
        }
        shape {
        }
      }
    }
  }
}
node {
  name: "global_step/cond/Merge"
  op: "Merge"
  input: "global_step/cond/Switch_1"
  input: "global_step/cond/read"
  attr {
    key: "N"
    value {
      i: 2
    }
  }
  attr {
    key: "T"
    value {
      type: DT_INT64
    }
  }
  attr {
    key: "_output_shapes"
    value {
      list {
        shape {
        }
        shape {
        }
      }
    }
  }
}
node {
  name: "global_step/add/y"
  op: "Const"
  attr {
    key: "_output_shapes"
    value {
      list {
        shape {
        }
      }
    }
  }
  attr {
    key: "dtype"
    value {
      type: DT_INT64
    }
  }
  attr {
    key: "value"
    value {
      tensor {
        dtype: DT_INT64
        tensor_shape {
        }
        int64_val: 0
      }
    }
  }
}
node {
  name: "global_step/add"
  op: "Add"
  input: "global_step/cond/Merge"
  input: "global_step/add/y"
  attr {
    key: "T"
    value {
      type: DT_INT64
    }
  }
  attr {
    key: "_output_shapes"
    value {
      list {
        shape {
        }
      }
    }
  }
}
node {
  name: "tensors/component_0"
  op: "Const"
  device: "/device:CPU:0"
  attr {
    key: "_output_shapes"
    value {
      list {
        shape {
          dim {
            size: 3602
          }
        }
      }
    }
  }
  attr {
    key: "dtype"
    value {
      type: DT_FLOAT
    }
  }
  attr {
    key: "value"
    value {
      tensor {
        dtype: DT_FLOAT
        tensor_shape {
          dim {
            size: 3602
          }
        }
        tensor_content: "--\224C--\\D\224\223[D{{8C\307\306VC\205\004\365C3\263\272D\246\245vC\262\261WC\312\311\005D*\252\215C9\271\220Cf\006\266D\210\207\307@KK\013D\224s\350DEE\341C\235\234\250C\210\207\033C\315\314&C\270\267\277B\246\245\275C\257.\353C\025\025\375A\221\320\211D\006\006\206A{\273\243D??\344C]]\355BHH\004C\246\245eB\227v\343D9\271]D\tI\031D\022\262\300Drr\206D\361\260gDZ\272\212D\307\006uD\240\377\205D\312\tvD\364\363gC\3643HD??\325B--\277B~\376zD\345$ID\221\320\tDl\354\310C\257\216\223D\246%5D\356\255mDKK\007B\246\205\203D\210\007\004D\320\017qD\224\023\243C\t\311\006DH\250WEuu\275C\022\022\314C\337\336iD\tI\022D\270\367%D{;\001D\320\317[C\'\'\017B<<LC-\3556D\304\303\332C\202\201\335C``\204C\017\017bC\216\215hC\232y\252Df\346\226C\350\347\010C\246%\252C\270\367~D$d\022D\205\204\205D\022\022\222A33GDuu\305A<\034\000ExxSC\353\352jA\367\366\016B]\035vD\202\201\277C\375|\200C\213\212\212C\246\245\321Cr\362\027DH\010\331DQ\0219D\361\360\210A\361\260\014D\334;\252D\036\036\200D\301\000\205D\036^KD\334\233AD\003\003fC\262\261\221A??sB``\300Cf\346\273C\353*\rD\235\234\010C\033\033IC\205\0040D\265\264\364B\276\275,D`\340_D\227\026\206C\361\360|C\tIoD]]\375@\232\231\311B~~\005C\216\215\021D\304\203`D\276\275sC\375|\305C\000p\312E\315\214!D`\240\224DK\313\014D\356\355\337B\0222\253D\246\345\304D\307&\212D\243\242\267DKK(C\320O.DTT\362B\301\200GD\353*#D\257.\233C\276}\\DTT\357C\006\006\003D0\020\277Du\025\225D\243\242vC]];C00<D\375|\332C\202\341\277D\014l\222D*\n\221D\315LsD\375\374+D\000\000\307C6voD\353j)D\036\336\023D\205\204\264B\240\237\260C\235\334)D\006\346\234D\364\323\230D\315\314;C\235\234\333C9\371^D\334\333\326C\033\333cD\334\373\221D\033\033\204C\254\253\021DTT\315C!!>D\326U\210C\022\022BA\331\330\233C\337\336DC\216\r\261C\235\034oDuuu@u\265ZD\000 \260D\356\355\313Bcc\023CTT\\C\000\000\000\000\254kVDKK\013B\205\204\004Dcc6Duu,D\350\347wCZZ/D\345\344~C\345d\000D\033\333?DZ\332\335C\210G*D\003c\200D~~\270B\257nLD-\255MD\320\017\005Dl,PD\022\022\236B\235\\\352DooCC\262q D\240\3370DuuWDc#\tD\367\266\210D!\341ED66gD\000\200\323C~~;D\367\366\005D\022\022\335C\334\333\013A\000\000\204Brr\317CB\302\nD\353*CD\276\275jC\342\341\221B\025\025\"Do\257\017DTT\035C\331\230\213D\017\017\023B\337\336*D?\277\230D\t\311hD{\273%Dx8\004D\323RiD\000\000\360A\356m\030D-\255\254CuuVD\202!\223D\025\025EA\326\025\033D\243\242\360C\301\300|D\356\355\315BHH\234C\367\026\214D\361\360DD6v0D\235\034\333C-\355MD\270w\tDE\205\007D9\271\000D\036\236\360C--\tB\331\330\rDr\362iD3\323\276D\213\312\020D\312\311\005D\361p\nD\227\026#D\337\336QDxx\301C]]\025B\307\306\260D\375\374\347C\235\034\262C\270\267\357B~>GD\3729FD\240\037=D\331XpD\361\360.D\246\205\200Dll6D\022RmD\342a\234C\356\355\200D\353\312\255D\017O\027D\254\353bD-\355cD\323r\213D\251\250\030A\251\250,B\323\362\235DZ\332LD\334\333)C\210\207\234C3\263\235C\251\250\302B\232\231\275B\216\215\014Dl\214\233D\307F\022D\210\207\017C\202\201\200Do\357TD\372\031\220DEE#Cc\243YD\270\267dC\213\212\346BWW\367AuuJC\221\020\227C\356-\'D\353j\262C\030\270\202D\312I*D\361\360\007DNN\032D\003\203\365CT\224aD33\233A--\255AllND\232\271\235D\334[;D\337\236uDr2\235D$$)C\334\3333B\'\247_DZ\032.D\273\272\372@\017o\320D{\233\203D\213\3127Dll\354A\246%cDc\2433D~>_D\334\033gDuu\326Ccc\343C~\336\216D\273\272\240B\307\306ZCxx`C66\351C$$\200B--fDo\257\024D\232\331$D\257\356\220D\342\341\231Cxx\304B\307\006 D{\233\216D\276\275uB\323\322\242B99\213B\227\226\000C\301\300\254B\246\245\277B\221\220\222B\'\'\225BEE C\353\352\032C\'\'\233BTT\274BNN\264Bii\245B33\323B\307\306\014C\375\374\310B\254\253\333B\257\256\226B\000\000\000\000ii\255B\367\366\001C\210\207\301BH\350\242D33\305B\375\374\304B\243\242>C33\267B\t\t\271A\036\036\300B\216\215\203B\301\300\364Brr\246B\t\t\205B\323\322&B\202\201\267BllhB\265\264,CBB\212B66\356Bff\222B\240\237\347A\232\231\303B\022\022bA\243\242\212B\'\'\271B\000\000\000\00099\371AEE\tB~~3C\221\220HB\216\215jC\315\314\230B\000\000\000\000**\240B{{\017B\235\234\212BTT\336B??\333B{{\013A\323\322\264B\265\264TB\326\3251C\210\207\313BKK\033C]]\001C33\207B``\304B\356\355\267BBB\254B\273\272>B\022\022\314B\017\017\251B\017\017\325Bii:C\301\300\242B\320\317\034C\323\3222B\'\'\255BHH\260B66\035C\036\036\366B\030\030\310B\246\245\225A\257\256\272B\326\325\243B\367\366\342B\323\322\302B\276\275\257B\361\360\\B\235\234\356B\213\212\212B\213\212\302B\334\333\331B\240\237\201Bll\236B\033\033\002C\320\317\263B**\244B**2B\202\201\223B\014\014\244B\033\033\311B!!%B\320\317\327A??\241B99\223BQQuB\014\014|Boo\353B\375\374\212B33\277B\003\0032C\262\261\271B\331\330\264B\224\223+BHH\342B\t\tqB\205\204\264B\270\267\rC33\365BuuUB\315\314\236B\240\237\243B\257\256\236B\000\000\276B\022\022\326B\246\245\375B\337\336\244B\224\223\223AEE\327BBB~B\257\256\250B\251\250 C\240\237\201B\262\261\217B\361\360\322Bff\346A$$\214B\350\347OBWW\207Bxx\246B{{\227B\216\215\325A\232\231\233B**\342A\270\267\235BBB\264Bxx\017C<<\362B\254\253sB**\312B\003\003sA\014\014\250B\315\314dB\014\014\306Brr\244B\254\253{BTT\324B**&B\320\317\307B\326\325EB\367\366\306B\372\371\273BWW{B\350\347\237B\364\363\353B\315\3148B\273\272\250B\375\374\014B\025\025\323B\014\014%C\315\3144C\270\267\003C\345\344\362B\372\371\277B\000\000\034B\326\325\301B--\227BEE\355A$$\336B\270\267\267B\273\272\232A\342\341%BNN\254B\307\306\274B**\254BWW\363B\033\033\223B\036\036\370B``\013Cii}B\240\237_B\372\371\341A\367\366\226B\202\201\307Boo\327B\372\331fE\320\317_A\356\355\223B]]\277B\251\250pB\334\333OB\022\022\320B\265\004\007E\307\306\240Brr\300B\017\017\'Bll\244BHH\200B??\347Brr\262Bff\266B\273\272\013C\307\306\352B\224\223\265Bxx\310B\270\267\275B\t\t\341B\372\371\347B{{\307B\221\220(B\273\272*A\254\253\257B\036\036&B\345\344\304BQQ\245B\251\250\013C\350\347oBuu\001C\326\325\303BZZ\300B\353*\314D--\253B\'\'/B]]\325A\202\201\225Boo\nC\257\256\200B\243\242\230BEE\305B{{\016C\320\317\273B\235\234\021C\033\033\211B00\244BTT\306B\232\231\307B\221\220\230Buu\215BTTxB\025\025\203B\033\033#C\000\000tB\270\267\321B\205\004\257DHH\246B\036\036\370B\224\223\303B\315\314HB\232\231\315BKK\243BKK\241B\276\275\211B\312\311\231A\307\306\232B--\217B\331\330\302B\326\325YB\036\036\310B\273\2726C\205\204\262B00\344Bii\271A\017\317lD\022\022\274B~~\314B\003\003\203B\246\245\365B\246\245\311B\254\253\277B!!<CQQ\317B\265\264\242Bll\304Arr\rC\000\000\000\000\350G\264D** C\312\311&Crr\013CffNB\243\242\"A~~\352B$\204\206D\210\207\301B33\303B99\251B\036\036\310B\251\250\334B$$\214B\326\325\215B\361\360\274BEE\267B\273\032\350D\262\261\275B\014\014\226B\331\330\274B\345\024\016E\320\317\237B33\004Crr\314B\257\256\346A\014\014\254B\262\261\275B\364\363\261B\254\253\303B\326\325UA\345\344\334B\375\374\266B\t\t\305B\364\363\347B\003\003\225BNN~A\353\n\205D{{#C\350\347\307B\315\314\242Brr\340B\033\033VC\254\253\333B\210\207\237B\312\311)B\243\242%C]]\333B\331\330\262BNN\306B<<\364Arr\022B$$\004C\254\253\227B\224\223\315B<<\001C\254\253\017B\t\t\361A\036\036\274B\025\025\265Buu1B\014\014hB\353\352\324B\240\237\233B\022\022\240B\326\325\247B\246\245\325Bcc\321B\205\204\276Buu\001B\337^0D\367\366\240B\372\371\357B--\223B\246\245\273D\246\245\025C\265\264\230B66\302B\006\006\252B\334\333\323AHH\304B\361\360\014B\361\360\020B\331\330\270A\251\250\264Buu\263B\312\311\005B\017\017\373B\312\311\257B\270\267\235B\304\303\303BEE\317B99\000C\003\003\305B\364\363\231B\003\003\006C\320\317\000C\367\366\340BNN\302B\254\253\207B\030\030\027C\312\311!B99\301B\246\245\205B\t\t\205B\345\344\310B\375\374\252B\356\355\335BWW7B\235\234)C33wB\251\250\234B]]\201B\367\366\356A\262\261MB\353\352\302B\257\256\260B\312\311\004C\227\226\364B\361\360\242Buu\020C\251\250\310A\006\006\214B\342\341\227B~~KC$$\264B\022\022\010C\257\256\212B\334\333\231B\353\352\206B\356\355\303B\326\325\261B\356\355\265B\210\207wB\243\242zB\246\245\333B\t\t\243BKK\241B\210\207\267B\312\311\245B\235\234hB\326\325\375B\000\000\000\000\367\366\nB$$\226B\375\374\270B<<`BZZ\302B\210\207\271B\254\253wCQQYCll\326B\326\325\355A\342\341+C\270\267\212C\342\341\010C-\255\344C\342\341tC\235\234(B\017\017\211C\216\r\035DN\316AD\364\263\016D\326\325\335Au5\035D\276=FDHH\341CiinCxx\227Cii)B99EB\216\215\315@TT\217C\350\347-C\350\347FC-\255\371C\254\253+B\367\366\366A\304C\027D\364\363%C\301@\216C\235\234$B\262\261VCE\305\350C\022\022\352B\246%\315C{{\245Coo-CKK\222C\205\004\253C\'\247\251C\262\261\020Coo)C]]\001C00\021D\372y\032D$\244\315C3\363KD\022\222\313C\312I\037D\003\003\376C\216\215\363C\257\256\326Ax\270\034D0\260\034D{{#C\000\000\000\000QQ\224CEECD**\362CQQ\010D\364\3637C~~7CQQ\245C\'\247\242C\213\n\374C\375\374\202B\315L\374C\213\212\210C\221\220\020B\030\230\307CZZ\332?\323\322\240B\323R\303C\372\371\331CQQ\211B--\355C\257n\"D--\207B\003\003;C\350\247\022D<\274\276CB\202\001D\312I\014D\221\220@A\235\234\003C\337\336\221C\227\226\366C\246\245\255BBB\250C\006\206\307C\205\204\230BNN\326B\025U9D\367\366\207C\337\336\255Cx\370\242Ccc8CllHC\301\300@<\213\212\374B\367\366\250C0\260\374C\'\'\014CNN\362B\273\272\270B3\263\274C\213\212BB\331\030[D\337\336+D\000\000\000\000\003\203\225Cc\343\346C\326\2254D00\325C\304C\315C\221\3207D!\241\257C99\220C00\260C\276\275IB\246\245\031D\375\374xB\030\230\314CE\305\331C\000\000\000\000\364\363sCuu\rCZZ\302C]\335\244C\017\0177B\323\222\035D??\264C\213\212\354C\367\366\226Cc\343\330C\246\245\031B\2654\260C\017\017\245B\350\347\230C\205\204SC\367\366xCHH\033D\326\325\225@Z\332\253CZZ\302B\323\322\345C\337\336^@\361p\353C\022\0222B\205\204\330Bx\370\343C\213\212\266B\036\036\376@{;\026DNN*C0\260\262C\367\366VA\304\303\350C\'\'\275B\315\314\364AWW\277B\3729\006D\334\333\361C\022\022\322@\213J/D~~~B99YB\232\2310C\210\007\016D\000\000\000\000{\373\261C\320\3179C\270\267\013B\356\355~C\356m\316C\246e\034D\320\317\367A\312\211\003D\033\033\320CBB~B\254\253\271C\000\000LBW\327\250CQQ\304C\367\366\364B\372y\334C\257\256\216C\304C\213Coo\247A\257\256\216@3\263\204CKK\205Bi\3512D\337\336?C!!\021A\276\275/C\022\222\221C\003C[DZZ\006B\353\352\202A\025\0251B00\373C\221P\037D\356m\263C\224\023\342C\216\215ED\216\215\234C{{+C9\271\332C\367\366\002B\2621ID99\221A\'\247\330C!!\322Cxx\013C\022\222\'D\227\226\324C\213\212\352C\003\003EC\265\264\251C\257\256\336C--mB\356\355dC~\376+D\025\025\003C~~jB\221\220\250Bll8Crr\252B\334\333\'B\235\234\256BKK9C\205\204\204?\205\204\004AE\305\334CKK\341Bxx|C\307\306\322B\350\347\217B\276\275\rBZZ\002C`\340PD\307\3062B$\244\255C\265\264\013C!!\307C`\240\000D\221\220\242C\224\023\313C\232\231\311B\356m\200C\337\336LD33\207B]\335\311C\361\360VC!\341 D--\021C<\274\326C\025U(D66~B\334\333\267B\304\303tC\353\352\356B\017\017\337A\262\261\311B\030\230\245C\345\344\327C--\335B\030\230\267C\265\264\006C{\373\252Cf\246\000D\000\000\000\000BB&B\017\017\205B\2707\203C\375\274\006D??\364C``\212C$$\250B\307\306\320B\273\272\376B-\255\273C\243\"\272C\216\215\255@\312\311\000Cf&)D??\271B\251\350\016D\000\000\000\000\022\022|C3\263\207C\030\030\236B\342\341\262C\361\360UC\227\226JB\356\355.Coo\211B\210\207\250C\221\220\374C\345\344\352B~\276\032D\326U\274Cxx\222C\202\201oC\t\211-D!!FDWWGB\367\266\007Do\357GD\301\200\025D\334\333(C**\004C\276\275\rDuu\207BQQwC~~\330C\tI\010D\t\t\377BZZ-C\235\234\201C\227\026)D\265\3648D\224\223\013B\367\366@DZZBB9\271\250C\276\275\261BNN\003C\t\t\341A\000\0001C\350\347-CccLD\'\'\307A\000\000\000\000\276\275$C\216\215\257B---A\022\022iC\315L\232C\210\207\361B\367\366\020C\240\237\005C\216\2153Dll\216C\276\275-B\265\264\\D\213\212\321CZZ:Ccc\003CEE\203B\276=\213Cr\362\306Cf\246\031D\205\204TA**nC\006\006>Cc\343\342C~~\352BZZ\234B66\260B\257\256\016BB\302\351C<<\254C\353\352\005C\227\226~C\375\374\246B*\252\002D\251(\030D\235\3345D\216\215\203C\323R\315CTT\007D\243\"\307C\030X9D\312\311I?\356\255,DNN\346CHH\273C\025\225\202C\036\036\250C\216\215&D\235\234\354A\246\2458C\251\2500B\017\317-D\320\317RD??\351B\000\000\000\000\361p\236C\334\333\013C\243\242@C\342\341\323C\301\300\337C\006\006\375C~\276?D\224\023\267C\337^\244CEE\004C??\205C\017\017\366C\276\275\313B\036\036\376Bxx\'D\353\352FC\372\371NC\254\253MC\307\306\306?xx\003C\205\204\374A\006\206ZD\240\237zC\326\325aB00\236C66hCQ\321\347C\345d\214C*\352@D<|;D\030\330\004D\353\352\335C\276\275\317Bff\314BccCA-\2556DWW\370C\003\303\000D\t\t\021D\262\261\203BBB\241C\003\003\347B\235\234$C000CH\210UD\301\300\310C\375\374\374@\367\366HD\315\314\246Bcc\rDf\346\300C\202\201\026C\265\264\226Bl\354BD\323\322\024C\213\212\300B\235\234\264C\205\204\215C\000\000\000\000\350\347\207@\273\272 Co\357*Dcc\335BNNWC\265\2644?\353\352\314B\312\311\016C\202\201\201B\216\215\251C$$-Cxx\251Ccc\370C\232\231\233CQ\321\204C3\3638D\334\333kAKK\253@\345\344_C!!\231A\315L\211C\364\363\036D\205\204PB\375\374#C\251\250\366C**aC\036\036\213C\331\330\330>\t\311\000D\240\237\357C33\347B{\3739D\270\267\253B\232\231\346C\326\225\023DNN\005C\307\306\201C\342\341\021D\257\256\037Dxx\025C**\252A\232\231\221Cii\225B\022\022\214Cff\031C\017\217\324C\210\007\210C66\364C\t\t\241B\205\004\227C``\014CEE0C\227\226\335C~\376\362Cuu\321Crr#C\036\236\356C\315\314*CZZ\255C\337^!DNN\273CTT\003D\262\261\324C\030\030\360A]\335\247C\257.4D\025\025\273B\320\317\303B\000\000\340B\213\212\326C\337\336\016B\221\220\202B\323R\270CK\313\255C{{\373@\006\006\320C\307\306/C\2707\343C\257\256\366C\2621\231C\342\341\351Bll\320B\350\347\273C\301\300\020A\240\237\014C\361\360\326B\364\363\000Cuu\353C\'g\nD\350\347\017C6v9D\304C\260C33s@\022\022HC\232Y6D\331\330XC\342a\337C\312\311\001Bff\334C\323R\230C-\255VD\022\222\237C~~\023Cll\371C\240\237\305BQQ\005D\342\341\361A\232\031\363C~~\024C3\263$D3\263LD\213\312BD3\263\346C!!\327Ccc\225Cxx\341C\224\223\367C\246\245\367B$$\354B\033[\002D\375|\366C**;CK\313\222C-\255\364C\350\'\002D\030\030\006CQ\321\365C\tISD\345\344$CKK\275Boo\245B\033\033\231C``\020D\202\201\274C\337\336\304B\356\355\370C``8B\017\017O@\276\275\305B\350\347\002C\361\360lB\000\000\000\000ooo@ffRC\323\322(C**\250C\356\255\'D\'\247\315C??\235B\337\236#Dff.C\000\000\000\000\022\022\343C\265\264\276C??\314C\312\311\354Cxx\207C\273\272\372A\243\242\303C\240_ND\342!UD\000\000fC\2621\264C\213\nAD6\266\234C\273\272\300B\025\025\315B\315\314\004C]]\022C\276}.D\312\311\001B\265\264BC\033\033#B\235\234\242B\022\022NB\265\264\216B\304\303\313B\262\261\344Cuu\331B\273\272\222C]]iBHH@B\367vZDBB\000C\227\026\227C\342\341\265Bll\374A\350\347\217A!\241\307C\375|\207CQ\221:Doo\234CWW\267A??\177B\246%\216C\315\314\375C\353*LD*\252\350C66KCBB\310Bcc\267B\375\374 D\312\311\362C\276\275\371CNN(C\246\245\034DQQ\351A\353\352\232A\221\220\014C\304\303\363B\326U\224C\320\317#C\2621\317C\331X\240C**\021D\356\355\225C\312\211,D\000\000\000\000\361\360\345C\372\371LC\022\022$D\014\214\206C\240\037\253C$\344\016Dc#3D\301@\311CH\310\276C\312\311TC\323\322>D{\373\252C\356\355\033C$\244;D33\231B\006\006zB\t\t+C\000\0006D\323\322\nD{{\033B\301\300\230B\036\236\344CHH&C66\326@00\264B\221\320\020D\'\'\035C\262\261\335B\216\215\033C\240\237\000D\235\034\036D\240\237,Cr\262\007D<|MD!a&D66XC66GC\2707\022D66\"D\270\267\250Cxx\262CZZ\242A\342a\245C\036\2361D\205\204\374A!aCD\003\003\237B3\363\016D\251hZD\364s\005Dxx\014C\265\264\377C\372\371+C\320\317^C33\211B\t\t\034Ccc8D\342\341\300C\232\231gC<<,B]\035RD\254+\226DWW\225B\345\344\360BTT\243C`\340`D\'g/D\205\264\205E\014\014SCTTND]]\007C\'\247VD\372y\226CWW(D\270\267$C\375\374\270B\364\363gC\345\244JD\304C\251C\246\245\245Bf\346^D\273zQD\'\'\'DQ\321\367C\301\300#C**\200B33\315C\224\223cB\017\217\316C\017\217\244CTTPDoo\026C\276=\377C\235\234(Co\357\nD\273\272\007C!arD\326U\213C\t\tAB**\334C\224\0236D*\352YD\364\363TD\312\311yA\210\207\000C\323\322\330B\367v\005D$\244\303C``aD\2654\240Ccc\016D\036\036\226A\243\342@D\375<\002DZZ\372A$\244\215Cll\036C\221\220\244B``\350A\270\227\202D\361\360OD\353j\203DTT\004D\030\030DC$$\001C~~]C\224;\230E\017\017\007D\014\014\336CrrFB``\356B\2621\257C\205\204mC\326U]D00\303C\273z.D\240\237kB\375<;D\320O\341CB\002bD\323\322\001C-m\010D!\341\023D00\302C\003\003\346C\375\3741C?\177ND!\241\237C\375\374\274A\273\272\030C\000\000\336B\345\244\007D\202\201\030C33\373B\323\322\252A\265\264\\D<<2D``\346B\'\247\353C\265\264\364@\251\250\240B\221\220\326BN\316\202Cr\3625D\350\'^D\224S^E``FC\232\231\207B\334\333\200C\304\203\013D\257.]Dcc\343@\014\014\246C\036\036\036@6\266\324C\375\374\300C\'\247\362C\273\272$C\025\225\035D\304\303\257C\235\334\006D\361\3600A66\375C!!\301@\312\311hCc#rDll\206BQQ\333Bxx9C\356\3559C\326\325\261C\246\245\253B\273\272\350B\232\2317CKKKCllwC\224\223\207B\331\270\217D\301\300\236B66\204C\243\242fCll\216B\246\245\005A\221\020\341C\270\267\001D\315\314\025C33\341B66\034D\202\201\257BiieB\246\245\006C\205\004WDEE\221B\014\214\225C\227\026\312C\331X\271C\254+_DTt\241D\036^^E\345\344\214A\030\030\314C\240\237\322C99\322C\337\036OD\243b3D\356-\204DrrBA\350\347nD\232\231\245B\337\336\036B~~\356C\323\322\017CEE\253CBB\202A\243\242\222BW\027\203D{{\233A$d4DBB\362B~~bC\017\017\013B??SB\276]\211D\221\220\366C\025\225\204Cuu\225CZZ\002C**\014D\014\314dD\240\237\036C\3729dDx8\005Dcc\007DHH,D$$\027C\372\271QDx\370hD\315\034]E\022\022IC**\236C\353\352\324B\t\t\275B\364s\263C\276}\001D0\260\341C\312\311^D\254+UD\345\344.D\342\341vC{{\243A\367v\321C\353\352\250BxxSC\022\022\242A]]MAT\314\246Eii!C\t\tBCTT\336B{\373\\D\030\230\000D\006\226dE\276==D\372\371GD\030\030\200A\364\363\261B\307\306\001C\372\371\265CK\313\310C\262\261#CNNCC\257.ZD\'gWDKK\211CBB\002Brr\"B\254\313\212Drr\262@\000\000\000\000\022\022\362@\014\014\034B\235\234\224B\257\256 CKK\323A~~\022BKK\203B\210\207\245B\337\336^?\036\036\222B\000\000\000\000\000\000\000\000\301\000VD\033\033WB\315\314\237C\240\237WB\345\344\024A\301\300\230B\334\333TC\202\201\353B\257\256nA\364\363\263@\240\237\377A\030\030\240A\221\220PA\257\256\nBZZ2B\003\003+B\000\000\000\000\276\275=?\017\017\211B66fA\000\000\000\000\334\333\023B\257\256\036B\000\000\000\000EE\335A\331\330\222B\033\033DC]\335\204C99\311AQQ\251A\251\250\007C\'\'wA**\252?\232\231\031?$$XBK\313\203C\000\000\360A\345\344\024A``dB\270\267\245BZZ\032@$$\013C\270\267hC--=A\372\371\253B000C\372\3719@\270\267\247A!!AB\000\000\000\000rr2@\301\300@=-\255\240C\334\333\245BfffC\345\344\214Acc3A<<lA\323\322:B\000\000\000\000\276\275qB\240\237\277A***A\361\360\000BZZfB\350\347wA\262\261QAoo\227A\337\336\370B\036\036^@\000\000\000\000\307\306BB\315\314<B\t\t\007D\364\363\233B\361\360tB\364\363s?\243\2422A\006\006/C\301\300@=\323\322^BWWWA\301\300@=WW\317A\000\000\000\000ll\316B\017\217\212C\221\220\214B33cA\265\264\030B\326\325\325@\315\314L>\000\000\000\000??\247A\227\226\276A\000\000\000\00033\003A-\255\367CKK\013@\000\000\000\000\353\352\036B\017\017\037A\227\226\266A\003\003\003B\224\223cABB\302@EE\025ATT\364Axx\370?\353\352ZA99\021C\364\363\211B``\200@??\033B\235\234\240B\312\311\211B\224\223\037B\350\347gB\337\336jC\030\030dB99\"C\t\t\213B\000\000\000\00099\001B00\260@EEAB\017\017jC\353\352j@\364\363SA\000\000\000\000\251\250\010A\000\000\000\000\000\000\000\000\033\033nCx8\026DNN\256@\375\374\\AxxTB99\031A**CCNNN@\025\025$C!!\335B\246\245HC\'\';B\022\022%C\205\204}Cii\201A\307\306F@\221\220\330A\006\006vBcc\227B\372\371\231A\216\215\255@\372\3719@\216\215\345A\000\000\000\000\350\347\307Aoo8C\273\272\362AHHhB\227\226\276A\240\237\177B\232\231\311A\323\322bB\205\204\004>{{\333ANN9C\301\300\000A\337\336^?\334\333\353Axx\262B\213\212\212>]]\257BZZ.Cf\206\200D\331\330\330>\320\317RC\022\022\322@\025\025\353B\320\317\347A\224\223oBxx\251CuulC\301\300@<\337\336NAxx\210B\243\242\322B\246\245\001BHH\034B\036\036\276ATT\244A{{\013A\000\000\000\000\246\245\005A\000\000\000\000``\370A\000\000\000\000BB\242@\372\371\207B\364\363\223AWW\007B\246\245\305A\006\006\216A\000\000\000\000\350\347\213B\315\314\212B\356\355\355@$$\204@\265\264`BNN\350B\036\036\230CBBB@\006\006\006@999B\356\355ZCTT\352B\000\000\000\000\342\341\361A\331\330$B\353\352\302A\315\314,B\320O\306C\030\030\"C\315\314\014C\307\306EC99\301A\342\3415B\213\212\034C\000\000\000\000WW\267@``\272BQQ\005B66\232B\320\3173B\000\000\270Brr^B\246\2455A]]\345A\273\272:?\202\201zCiiJC\000\000\000\000\372\371\241B33\343A``\300A\003\003BC\246\245\275A\364\363\177B\262\261\351A\251\250\252B\304\303\243@uuUA<\274\255C004B00|C\000\000\000\000\334\333\273A\227\226\006Cff:B\221\220\336B\331\330X>!!*C\030\0301C`` @\350\347\203B\202\201\311A33GBWW\207A\301\300\300<\232\231\237B\000\000\000\000WW\243BBB)C??\003B\003\003\233A\006\006\022B00hC\350\3477A\375\374\304A\221\220\240A\257\256\256?\262\261\271A\372\371iBiiyB\000\000\000\000rr\366B\224\223PC\'\'#B\304\303\016C\243\242\240B\t\t\331Bii\301A99aCTT\272BWW\027A<<,B\000\000\000\000??\377@???Axx\320A\'\'SBoo\213B\210\207\247@\025\025\001B\003\003\243@uuJCZZ^B\353\352?CNN\316?]]\355A\265\264\204C\000\000\000\000\350\347\337A\022\022@D!\301\263D\033\333WD\227\2264D\307\306\216A\246%LDll\314C]]rCu\265bDN\316\241D99\221A\022\022\345C\213\212~DW\327\222C\356\355\030D\'G\223D*\312\207D]]pC\221\020\211D\000@\032D{{\303B\235\2340D\375|\233C?\277\225C\356\355\345A<|\024D\017OUD<\\\303D\000\000\000\000\251h\033D\353\252oD\262\261\251C\350\347zD0\360@D\232\231*D`\340\177D<<|B66\037DZZ\250C\025\225\200C\276\275\305A\003\003^D]]\036D\235\334sD\312I\213C\307F\351Cl\254HD\025USD\'\'\307C\205\3044DEE\351C\232YOD\342\341lCx\270\203D00\251D66\221C$$\253Ccc\355B\'\247\215C\320\317\037A\372\371gD\251\250\220Ai\311\237D\312\211JD\022R\223D\224\223UC\254\253\262CE\005\203D\210\2073C$$\004C\022\322lD\356m\374C66PD\227\226SD\022\022\350C\213\212@C\375\374nC\367\266ND\033\033\365B\022\022,D\276\275\365C\353\252JD\235\234[C\270\267QD\014\214 D\276]\201D\254+?D\342\341nD\262q!Dff\333C<\374\021D0\260\004E\'\'/B\025\025\246Co\357OD\232\231\275C\320\3170C\017\1775E\254\253\023DQ\021\202D~~\317C\257\256\372C{{\241B\334;\214D\036\036\342C$\244\240C~\036\223D\323R\330Coo;B\353*%D\036\036QD33\236Dff\nCi\351\272C!\001\206D\342!2D9\271\223C]\335$D\240\037\001D\315L\324C\030\030\037Df\2461D3S\221D\270\367\010D\345\304\203D\246\245KC\331\330[Dr2\035D\2621\243C\361\260\017D\202\301qD\350\347\246C\025\265\351D\243\342\tD\251\250CC\202A5D\227\026\376C\202\201\201@\37293D\367\366<D\224\223\372Ci\351SD!\201\224D\307\306\335C``9D\276\2757Cuu\306C\227v\220D\337\336\024C\257.VD\331\230\213D`\340\262C\356\255#DHH\025C\235\\QD\273\272\234B\210\207\341B\221\220\201D\345\244\021D\205\204\324ANN\004D\334\333\213A\276=\336C\213\3126D\326\325\203C\000\200&D\000\200\234C\2707JD\025U>D\014\014<A\361\360\370B\273:[D\375|fD66wDcc\347C\361\360\334B`\340,D\t\t\033CB\302=D6\266\253D``\372C!\301\220D\025u\216D\022\022[D\323\322\202B\251\350.D\025\025\263C0\260\302C\2707\373C\000\000YC!\241LD\227\266\202D331D~~\"B\235\234\236D\202A$D\364\363#C\342\341\363B\240\237\340CE\305\316C\372\3711B\367\366\210B\251(\362C\'g8D\216\215yC\350\347kD\331X\032D\224\223\317C\205\204\214A\342\341\353Bii\211@$\2447D9y4D\000\000#D\367\366nD\331\330\014C\356-\010D\334\033WD\246\2455C\356\355ID\257\256\257C\375\374&Dxx\332CEE@D$\244\237C\3729\036D\t\taB\320\317\'D\213\212zA\240\037#DWW}D?\277\325C!aPD3\363BD\243\242RD3\363_Du50D\000\000wC`\340bDZ\332kD\'\'PD\006\206[D\006\006\325C\'\'\370CZZ\307C\022\022\264C\331\330\302BNN7Dff\016D6\266\013D\334\033\232D\030\230\033D\224\023\354C\000\000\000\000\000\000\000\000Q\321ZE99\234C\003\003\031C\000\000\000\000\000\000\000\000xx\315C\000\000\000\000\000\000\000\000\000\000\000\000\262\261eBW\227SD\000\000\000\000uu\343C\224\223\333B\000\000\000\000\000\000\000\000\000\000\000\000\000\000\000\000\301\300@<\221\220\220=-\255\347C\000\000\000\000\000\000\000\000\000\000\000\000\350\347\237B\000\000\000\000\205\204\004>\301\300@<\'\247\251C\'\'\313B\t\351\350D\000\000\000\000\000\000\000\000\232\231\252C\221\220\020>\361\360p=<<\253C\000\000\000\000\331\330\330=66\202C\246\245\225A\361\360p=\301\300\300<\000\000\000\000\000\000\000\000\301\300\300<TT:D\216-\306D\000\000\000\000\000\000\000\000\356\355\255@\210\207\303B\243\242\202@\345\344\354B\221\220\020>\270\367/D\301\300@=Tt8E66\266?\276\275\275?\240\037\371C\000\000\000\000\221\220\020=\000\000\000\000\251(\010D?\277\243C\000\000\000\000\000\000\000\000\000\000\000\0003s_D\221\220\020=TT\366CK3\231E\210\207\017C\000\000\000\000\014\014\354A\276\275\275A\000\000\000\000\000\000\000\000cSwE\372\371\253B\353\352\351C\000\000\000\000\000\000\000\000??\177@xx\361C\331X\324C\273\272\272>ff\306A\036\036\nB\273:YD\265\2644>\033\233\321C\304\303[B\315\314L>\361\360p=\000\000\000\000\342\341\341?\262\261\352C\000\000\000\000\356\355@C\'\247\266C\213\212\234B\000\000\000\000\342\241\213D\000\000\000\000\301\300\300<\213\n\224C\000\000\000\000\000\000\000\000{\373\356C\326\325aB\000\000\000\000\000\000\000\000\000\000\000\000\000\000\000\000\000\000\000\000\251\250(>\350\347\347?\000\000\000\000\000\000\000\000\022\022\222?\251\250\340B\3318\224D\301\300@<\000\000\000\000\000\000\000\000\000\000\000\000\000\000\000\000\320\317RCo\217\227D\000\000\000\000\337\336\336>\240\237\273B\301\300@<KK\275C\000\000\000\000\221\220\020=\000\000\000\000\202\201\201?\036\036\276@\000\000\000\000l\014\206D\227\226\226@\205\204)C\000\000\000\000\254K\345D\315L\032DEE\305@\000\000\000\000\000\000\000\000\000\000\000\000\216\215\343B\235\234\237C\361\360p=<<\322Co\377\026E\000\000\000\000\326U\200DNN\206B<\274\376C\000\000\000\000\301\300@<\000\000\000\000\331\330\324C\000\000\000\000\210\207\361B\000\000\000\000ll\334C\014\334\253E\262\201;E\301\300@<\000\000\000\000\307\3066A\000\000\000\000\000\000\000\000\350\347g?<<\250C\000\000\000\000\000\000\000\000\270\267\267@\270\267\027A\235\234\034>\000\000\000\000\000\000\000\000QQ\001A~~\277C\240\237\037?~~\301D\000\000\000\000\000\000\000\000\301\300@=\'\'\272C]]uC\'\207\264D\213\212\n@\000\000\000\000ff)C\356\355)B\301\300\300=\000\000\000\000\000\000\000\000\'\'\317B\000\000\000\000HH\240A\000\000\000\000\000\000\000\000r\362\264C\022\022\222?\000\000\000\000\000\000\000\000\000\000\000\000\000\000\000\000\356\355\315@\000\000\000\000\221\220\020>\251\250\024B\000\000\000\000llQC\337\336\336>33<C\000\000\000\000\205\204\004?\307\306\026C``\340?\301\300@>\243\242\242>\243\242\"@\030\030X@\353\352\352>N\016\010DKK\313Af\246\256E\301\300@=rr\004C\361\360p=\000\000\000\000\000\000\000\000\000\000\000\000K\313\204D\000\000\000\000??\363B\364\363\031CHH\270B\251(\231Cxx.C]]\231B\025\025\255B<<\334B!!\301B00\246B\227\226]C\210\207!C\342\341\335B66\244B\221\220nC\221\220\035C\033\033\217Bff<C\017\017sB\t\t)Cll-C\025\025\026C\205\204\320Bcc\267B\224\223$CNN$C\014\014\270B\326\325\261B\345\344(C\337\336\203C\372\371\003C\221\220\250B\210\207~C<<zC\025\025\325B66LC\014\014\376Buu\014CTT$B\323\322XC\017\017!CWW\010C\353\352RC\372\3719CH\310\205CQQ\271Bll,C\224\223\rC\326\325\375B\301\300\034Crr\354B\022\022?C\'\')C00\031C\036\036WC66\022CBB\005C\323\322\362B33\025C\315\314\211C\232\231\025Bll0CWW(C\240\237\211BBB\354B\345\344\320B\025\025\305A\232\231\216C\326\325\016C\036\036\264B\025\025\034C\235\234\027C??\327B``\352B\312\311\343B00\262B``:CKK\017B\270\2672C\030\030\'C\315\314\336BQQ)B\033\033\025C$$\nCii\005C\326\325\205B{{,C\036\036\304B\265\264\"C\014\014\tC<<\033C\367\366\036C]]\215BWWGC\320\317\253B\235\234\"C\331\330\036C~~,Cuu\033C**\362B~~\001C\334\333\367B??\335Bii\016CZZ\025CZZuC\022\022UC\025\025\267B\331\330\027C!!\nC00JC\205\204\"C\017\017\026C\202\201\315B33 Coo\222C??\030C\304\303\327B\301\3001C\030\030uC\320\317UC``6C{{DC!!:CKK\323B\270\267\341B\202\201 C\017\0173B\030\030\306B\372\371ACQ\321\205C??\202CTT\024B\033\033\373B\315\314\250B**\344B\350\347\311B\246\2454C$\244\210C\315\314\300B\353\352\035C\364\363mC\301\300IC\304\303 C\323\322\022A\210\207\227Aoo\361B\367\366,C\014\014\336B\334\333\"C\246\245\003C\240\237\'C00\'C\030\030\207C\323\322\032C!\241\250C\232\231\211A\307\306\001C\273\272\006C\301\300\005C**2C\235\234qC\235\234dBQQ\321@NN+Cff*C\364\363\000C{{@C\243\242(C\304\303.CEE<C\323\322)Coo8C\205\204\326B~~\201C--LC\224\223\345B\304\303\331B\232\231\034C\307\306\202B\036\0365C\232\231eC\243\242CCQQ\333B$$\tC99\021C\022\022`CBBEC\372\371\022CBB\006C994C\342\341\022C--\267B\202\2010C99\351B``)C\315\314\374B\224\223OCNN;C\216\215\034C\265\264)C\326\325\333B\030\030\326Buu\373B\t\t\273B]]\221B\t\t\343B\375\374\312B\262\2612C\235\034\241Cuu0C]])C\265\264\017C--\267B``\005Cxx\rCff\034Cuu\rC\221\220pB\273\272\252B\205\204\030C99\032C\342\341\225B\320\317\233Bff\216B\240\237)C\t\t\010Coo\205B\240\237|CQQ\026C\254\253!C]]=C\337\336\374B\227\226\036C\017\017\313B\265\264\031C\265\264\037Cff\340B\033\033\013A\030\030\320B\334\333\331B\342\341\'C\262\261\265B**\336B\356\355ABcc#A\213\212\236B\232\231\315B\t\t\343B\227\226\033C~~ZC\205\204\rCxx3C**|C\372\371\311B\375l\003E66EC\022\356\007FWW\005C\326\3256CW\327\202C\251\250\026C--\327B\246\245ICf\346\204C\033\033YC33\014C\276\275\rCll\342B~~\261D\326\325\035B\323\322IC66kCx\370\237C\265\264QC\320\317SCrr\236B00\304B\323\322\004C\t\tAC\014\014\300B\353\352*C\372\371`CiiKCBBhC\262\261\311A\017\017YC!!\216C\326\325UCrr\004C\006\006\332B\202\201\214C\345\344GC\331\330HC\025\025CC\213\212\344B\232\031\206CEE\237B\213\212&CKK\331B\312\311NC\000\000\000\000TT\306B\251\250ECuuVC66\276B\273\272\006C\361\360\213C\273\272ACQQECBB\026C\036\036\266B\243\242\203C\345\344\266B\000\000\000\000\014\014\220B\000\000\013CNN\310B\205\004\353C\017\017\305B\375\374\222C\221\220\\B{\373\216C]]\000C\323\322\010Cff\362B\345\344\316B\273\272\033C\'\'*C**\025C\254\253\355B\320\317^C\3232\223D\331\330\rC\213\212\202C\022\326\tF\202\201\321B\000\000\000\000\000\000\000\000\372y\217C<<?C\262\261\311B33RC\342\341\226C\t\211\205C\224\223YCNN\260B!!\377B\224\223PC66\034C\t\t\233BccRC$$\024C\216\215\003C\342\341\020C\'\'\217BTT\334B\232\231\347B\356\355\305B\232\231sC\022\022HC\265\264\346BHH\204C\257\256 CNN\360Buu\365B??/A\213\212\202B\257\256IC99\030C\276\275\261B\'\'\345B\356\355\245A\364\363\341B\254\253LC\017\017ZC\202\201ZC\235\234\352B\312\311\225B``3C\367\366\214C\243\242>C33\243B<<hC\315\314)C\334\333KCxx\002C\350\347\010C\301\300ZC\315\314\025C\210\207`C\353\352\352B\257\256\016A\221\220MC\000\000\000\000\367\366\014C\312\3111B66\034C\202\201\217C\350\347\002C\000\0004Cll\244A\350\347\rC\353\352\274B33vC\000\000\000\000\320\317PC\006\006\204C\000\000\000\000\304\303\026C\364\263\246D\364\363dC\350\347\255B\326\325\rC\312\311\026C\251\250AC\213\212WC\304\303dC\307\306\312B??\347B\014\014\006C\033\033\267B\003\003\021C\205\204\001CTTfCZZ\203Cll\346B\326\325,C\014\014\201CQQUBEE%C~~\366A\350\347dC]]\004C??\221B\014\014\014CiiOC\301\300IC\227\226*B\350\347}C\000\000\000\000\304\303\373B~~vCBB.Cff\272B\375\374\340B\345\344\001C\345\344.C\257\256\013C\'\'\206C\356\355\355B\251\250FC\372\371\014C\320\317\363B\372\371UC`\340\226C\235\234\306B\000\000%C\257\256\177C\364\363\025C00\205C\243\242:C\216\215\373B\367\366\000C\353\352YC\014\014YC\022\022dC$$?C\367\366\033C$$\354B9\271\231C--\"C00\nC\205\204=C\361\360\204B\216\215NCTT\004BiijC\036\036hC\364\363yC\262\261)C\246\2458Cxx\005CWW)C*\252\205C\000\000\256BBB\344B\372\371\tC``xC33\013B\356\355\001C{{[C99\367B\'\'\203C\262\261kCrrSC\312\3111B\'\'\357Bii C!!FC991CBBQC\006\0067C\000\000\000\000KK\305B\202\001\234C\334w\007F\033\033\353B\345d\200C\240\237|C\246\245\373B**dC\262\261aB\375\374+Cii\375B\030\030\336Boo{C\235\034\244C\326\325\204C**\350B\312\311tC\320\317\004C\033\233\230C\353\352\202C\273\272YC9\271\200CEE\034C\375\374\352B\307\306\242B\240\237WCff\236B6\246\010F!!\241Aii\311B\345\344}Cc\343\200C\000\000\356B\361\360\000C{{\367B\202\201\351B\254\253\363B\246\245_C\221\2201C\000\000\000\000<\274\241C\356a\007F\356\3551B66\230B\375\374\004B\202\201\213B00\320@\270\267\377AHH\010B\323\322\036B\025\025uA\000\0000A{{\333Auu\rB~~\240B\210\207CB\205\204xB\232\231\rB\356\355\265A\350\347\277A00 ABBnB\000\000\200A\t\t\321A\t\t\271A\364\363\353A\331\330\262B\017\017\243B\033\033\353Arr\342A\273\272\272A\320\317\247B\017\017\277A\337\336jB00\246BEEEA\326\325-Buu]B\367\366VB??\207A\323\322NB--\305A\232\231\021B\t\t\tA\323\322\260B\003\003\'B\221\220\220=\'\'gA\033\033\037B\251\250TB{{\227Buu\005AcckB\304\303\303@ii\tB\000\000\000\000\202\201\001B]]\233B??\223B\367\366\200B\312\311\341A\025\025\251BEE=B\320\317\377A\270\267\267A\304\303\245B\372\371\205B\202\201UB]]-B\227\226vA``0A33\373A\000\000\302Bll\034BccGB]]\035B\036\036\346A99qB66fB\227\226V@\036\036nB\003\003\203@rr\362A\276\275\225AHH\340A\033\033+B\'\'\327A\036\036\356A66\026A\030\030\330AWW\241B$$\324A\216\215\031B!!\241@\036\036\336A\022\022\332A\251\250\206B!!\021B\232\231\331A\257\256fB\361\360\360>\036\036\206A\367\366NBEE\215A\232\2319AWWOB99\331@33\303Arr\202All\374A\334\333KB\276\275\335ATT\030B\036\036\226B\342\341\035B66\366A\276\275}Aoo\357@\003\003\343A\t\t\221B\326\325\001B\224\223SB33WB~~2B??GB!!IBBBZB!!\tB\307\306\266A\364\363[B\273\272\032Arr\262@\361\360\260@ZZ\200BffJB\262\261\241B\270\267[B\364\363sA\361\360\350A\000\000\000\000NN\226AWW\237A\301\300lB\270\267\241B\216\215\275A<<lA\251\250\206BKK\223A\345\344pB$$\374A\262\261\311A\307\306\376A\240\237\207A\331\330TBll\314@$$\234B33\363@\337\336\230B\345\344\264A99\021B{{\223All`BccCABB\222A\265\264\342B\036\036\022B\240\237\037B\372\371qB\t\t)B\205\204\222BZZ\212AZZ:A\257\2566B\273\272\312A66>B99\211A]]\203B\301\300(B``8B\312\311\341Aff\032B\022\022\306BHH\030B66\032B\'\'\003B\025\025)B]]\315A\276\275\207B\304\303\303B\240\237\377@WW\327@***A!!\253B\003\003\353A\022\022\252A\353\352RB\251\250\220B\367\366\216B!!1A\251\250\200B\326\325\225B\334\333\257B\036\036\356ATTLB\372\371\271@33\313A99\211A\273\272\236BZZrBoo\037B\036\036\326A\315\314|B\312\311)ANN\036B\251\250DB\312\311\237Buu\227Bxx\222B~~dC~~\002B33\027B\323\322fB\227\226VBrrrB\315\314pB\240\237#B??kB\210\207\007B!!\341A\276\275\005B\224\223\243A\361\360 B\337\336.A\361\3608BKKkB$$\004B\312\311EB\216\215MB\210\207[B\240\237\311B\315\314\264A\000\000\020A\331\330\200A\350\347\205B\254\253[B\270\267\327@\301\3004Bxx<B\304\303\373A\025\025\035B\262\261iB??\317A\227\226\026B\022\022\242B\307\306nBuu\225A\323\322\022B\262\261AB\000\000\210A\030\030tB\205\204TB\273\272\006BiiaBff\026A\265\264\224@]]\005B\235\234|B\350\347\367A\213\212\272A\301\300,B\342\341\351A\345\344\314AZZ\312A\262\2615B\342\341\371A\224\223sA\033\033\003B\246\245iB\375\3748B\243\242\342@\307\306\204B\000\000\240@\372\371\271A\326\325\035B\323\322BB\216\215\237B\000\000\000\000\235\234\234B\246\245\315A\254\253\251B\210\207\327A\014\014\234A\036\036\"B\216\215=B00\224B\232\231\251A\243\242\216BZZJA\375\374\216B\257\256\366A\307\306nB00\350AooWB\304\303\003B\213\212JATTTB\337\336NA\331\330<BQQ\321@\232\231\205B\240\237\203B\025\025\375A\210\207G@00tB\315\314\274A\262\261!B\257\256.B``\200A\276\275\031B\273\272rB\276\275\275@uuqBHH\300A]]\365A\017\017;B\205\204dA??KBxxhAQQAA??\027B\345\344\304@\224\223/B\273\272ZA\033\033\247B\232\231)A\235\234\354A\224\223#ATT\236B00\222B\331\330\210B\304\303\023A\353\352\312@ZZ\242BKK\017B\254\253\033A**\352A\276\275uB\337\336:B\210\207\367A99\271A\t\t)A\345\344\254Axx8AEE\005AEEUB\257\256\206BKK\003B~~nB\372\371}B\213\212\032B!!QB\205\204\224B\342\341\021A\033\033/B99EB\017\017GB\t\t\311@\235\234\224B\205\204$B\276\275\rB\323\322\342A\254\253\223A\331\330XA\350\347\247A\221\220<BZZ\312A\213\212\212A\t\t\221A\221\220\010B<<DB\246\245aB\361\360\242B\345\344d>\213\212\236BoogB\345\344\344A\006\006VBTT\000BrrvB\353\352bB\367\366:B00PA33gB\331\3304B\273\272\352BZZ\272A??\377A\334\333sB\350\347gBKKkB\356\355=B\017\017\217B\265\264 B\331\3300B\320\317\217A\240\237\307A\257\256\366A$$\254A\t\t\321Aff\206A\003\003\353A\221\220\220=\342\341\301A\353\352ZA\254\253\007B```@66FB**2BKK+A\301\300 A\243\242rB??\217A\006\006RB!!\371A\273\272\256BQQ\341A\221\220hB\323\322\202AKK\363A\301\300\300<\350\347\357AuueA\304\303\017B``\360A\301\300\204B\345\344lB\251\2504B\315\314<B]]\243B00\260@\301\300\240A\337\336\206A~~\236AoooAZZ\032Bff\212B\262\261\321Aoo\217A!!QA{{;B\017\017\357A\301\300\206BNNN@ffvA33gB\257\256\222B\350\347\201B\315\314\334A\350\347\033B\257\256nA]]\217B$$lB\t\t\311@\240\237\177A666A\361\360\260A\364\363oBoo\037A\331\330\030B\036\036~B\361\360\210B\240\237\217AWWWB~~\246B<<<@]]\rBWW\227B\'\'kB\017\017OB\307\306\244B"
      }
    }
  }
}
node {
  name: "tensors/component_1"
  op: "Const"
  device: "/device:CPU:0"
  attr {
    key: "_output_shapes"
    value {
      list {
        shape {
          dim {
            size: 3602
          }
        }
      }
    }
  }
  attr {
    key: "dtype"
    value {
      type: DT_FLOAT
    }
  }
  attr {
    key: "value"
    value {
      tensor {
        dtype: DT_FLOAT
        tensor_shape {
          dim {
            size: 3602
          }
        }
        tensor_content: "I\022\010C\267\375\021Db\030kC\267\255\023C\014C>C\236g\355B=\017\233CU\225TC\350\331\234C=\357/D\253j\262C\236\347PB\350y\224C\000\0000@z\2160Dz\336iC\253\252\312A\253jYC%I8BI\222\244>=O\361B\267mpC%I\330B\3030\024Bn\033[Cz\236\205B\206\341\272C%i\000D\317\263<C\222$\276B\350y\224B\267\355kC\303\260\261B\253*_C\030&\227C\206\241QC\206\341\250CI\222eB\030f\263C=o\252C\253\252eC\000\000\226B\253\252`Cz\2369C\030\206\315A\236\007\202Cn\033\360C\253jyC\253J5DIRmC\253\n\203C\222\244\317C\000\000\000\000\253\352|CUe\"D\350\231\261C\364<\265C\206\221+D\030\006\032Cn\333/Cz\236\007AU5\217C\2224\227D\333\266\316C\350Y\027D\014\303\177B\000\000\000\0001\014\257BU\225bC\014\303\224B\267m\367B\236\307\272C\3030:B\350\271HC\364\274\347B\206\201\326C\317\263&C\267m\024C\222D\204C\236\347\277Ab\230\320B\000\000\000\000\317\263\225CI\222PA\350\371\237B\014\303`@UU\004B%\006\010F\267\r\320Cb\230\035C\014\303\224B=/\303C1\014\267A\350y\033Cn\233\201CU\365\224C\000\000\000\000\253j\260C%\3110C\000 \205C1\354\200C\253j\031D\303\220\315C\333\026\254Cb\030\260A\364<\273B\000\200\204B\253\352\322C\206!\tC\317\363\273Bz\236\242C1\014\215Cn\333\026@\030\206\366Bn\333\'B\364<LC\236\'\246C\222\244\260CI\222\014B\206a\252A\267\355\035C\000`\211CI\362\255C\236\347\211@n+\020D%\031oD\236\227,DI\022@C%\tdC\236\347\337An\233\202C\014C\210C\222$\013D1\214\354Cn[\255BU\225kC\236\347\327AI\222\316A\000\200\001C\206aBB\333v\275C\014CAC\303\260\371BI\222\210B\000\340\344C\364<\264Cn\333\026C\000\000\310AI\262\003D\222d\246C\014\303pCn[\230C\3173\262CU\225\036D\000@{C=\317\252CI\222\213C\364\0142D\3030\356A\333v\212C1\014\372B\317\223\234C1\014\373B\333\266bBb\030\033C\253\352\014D\364<?C\3509iC1\214tCU\325\340Bn\233UC\206\341\335B1\3143C1\254\203Cn\333\024BU\325\355C\236\247\023C\350\271jC\014\203\252C1\014C<\317s\006Dz>\001D\3030\374A\253\252\324BI\222\203C\317s\266B\350\271LC\206a\310@\000`\374C\206\241yC\014\303PCz\236\275B1\214YC\317\363\000AI\022\353B\236G\221C=\017%C\350\271[C\222\304\204C\014\303!B\253J\376CUu\235C\303p\"C%\311-DI\222\253BIRpC\222${C\253jgC\236\247\260Cz>\273C\236gkC\364|SC\333V\317C1\254\225C\236\347\226BI\362\316C\206\021/D\030\346\275C\000\000\200?\000\000HA\303\360!CI\322]C\350\331\031D\030&\301C\014\303\226A\030\306YCb\030/DI\222\354A\014c\240CI\222pA\014\0039C\303P\237Cz~\254Cb\030-CIR%C\253*\251C%IzA\206\341dC1\214\024C\000\000\002DU\325\004C1\014C?\303 ,D\364\274\327B\206!\203CIR\004C\014\2035C\030\306~C1\254\217C\317sOC\267m6C\3173bC\267M.DU\025.D\222\204\372C\014\343\017D\000\000$A\014CWCb\330\242C\317S\373C\364\\\277C\014S/DbhZDn{\275C\222$\001Dn\333\264B\364<\243A%IjC\364\374CC\317\263PC\364|\013CUU\315A\014\303\260CI\022\274BU\025\225C\333V9DU5\220C\014\223-D%)\247C\206\341\204C\206!|C\3030\000C\364<gC\014\303ZC=O~C\014\203{C\000\000\000\000n\333SB\350\271\246C\014\243,D\350y\356BU\265\340C\030\306YCb\0305C\253\252mB1L,Dn{\227CI\3223D\350y9B\236\007(D\236G\232C\236\'\177Cz^BC\014\343\265Cb\330\235C\364\374\022C\253\252VA\317\263\"C\267m\333@=\017\202C\303p\371C\364\274\023Cz\276 D\364\274UC\333vuC\000\000\tBU\365\236C\000\000\000A\000\000\253B\222$wBIR\235C\364<IC\206!\222C\030F\217C\303\260\210C\267m{@1\014eC\236\307\327C=\317\363=\222\204\232CI\322\016C\014\203aC\350y\236@\253\252\265C%\tZC\350\371MC\253\252\226C\364\274\276B\253j\314C\364\234\204Cn\333\254A1\214\271B\267\355\236B=\337\"D\350ybAI\222\346A\267\035 D\222$SCI\222/C\364\274\036C\236\'\002C\253j\241C\333v\032CUU\270BI\322\206C=O\277B%IDC\000\000\332B\364<dB=\317\222B\236\347$B\253j^C%\toC\253*\217B\267mPB\206a\221B\317\363\342B\236\247-CIRcCU\325\271B\236\347{B\236g\271B\333\266LC\3336\334Bz\236\022B\253\252\265B%\311%C\3030lB\3030\205B\30300C\267m\005Cb\230\213B1\014\227B\333\266\324B1\014:C1\214\211B\206\341\241Bn\333\256@\014#\207C\253\252.A\253\352.Cn\333\330B\350\371\364B\236\347\016C\222$XBz\236\225Bb\030\306@=\3178B\222$\305B1\214KCz\036\250Bn\333lB\206\3411C\222$\253B1\014ZCn\333\223B\350\271\024C\333\266\"C\014\3037B\333\266\315Bn\033GC\350y\014CUU\025@\303\260\227B\030\206\265B\030\3063C\236\307\221CI\2229C\253jYC\222$\232B\222\244\256B1\014tB\236g\277BU\325\200BU\325\337B\014C\230B1\214\207B\267\255-C\236\347\353AI\322ECUU\005A\030\206+B\030\206}A\350y\"C\206\341BC\3336\366B\350\371\202B\253\252\311B\317s\330B\333\266\365B\222$\277B\364<\023Bz\236\275B\206ajB\000\000\365Bn\333\014C\317\023\237Cn[\222B1\214\322B=\317gCb\030\316B%\211^C\222$\311?\222$*B\236g\205B\3336\007C\364\274\263B=\317\225B\000\200\326B\206a\016C1\014eBU\325\323Bb\030oC\267m\230B\303pTC\222d/C%I\256Bz\236\233A\000\000\235B=\017\021C\014\303\270A\014\303\307BbX1C\3030\037B\317s\347B\267mCAz\036\377B\3336\356B\364\274\337BU\325\203BU\025\031C\267m`B\206\341\213Bn[\rCn\333\322B\333\266\275B1L6C\222$IB\014\303\224B\364<dB\3030\033B%\311\252B\317\363\034A\350y\311B\014\3030Bn[\324B\364<_A=O\330B\3336\233B%I!BI\222\312Bn[5C\030\006?C\206aIB\014\303\205B\236g\212B\317\263\032C=\317\000B\236\347\031C\333\266lB\333\266BB\364\274EC\3030tB\333\366(C\317\363\340B\236\347@B\014\303\306B1\214\250Bz\236\227BIR\031C%I\266BUU\261B\364<aBn\0330CUUdCU\325lC\236\247GCn[\302B\350y\371B\236\347yA\333\266\rC\364\274\021CI\222]B\222$(B\333\366-C\030\206\005A\014\303\205B\253\252,Bb\030ZB\014C\001C\030\206VB\222d9CU\325\272B\000@]C%\311\232B\267m\276Bz\036\207B=\3174B%I\327B\303\260\nC\206a\301BI\222\220B\317\363\236B\350\371#Cz\236\306B\000\000\320@b\230\374B\014\0035Cb\030\277B\222$\nC\206\341\307B\030\206\211B\3336\311Bb\330\nCz\036\340B\014C\222B\222deC\364\274+C\317s\277B\303\260)C\317\263\'C\253*MC\317s\275B\3030)CI\222\254@\000\000\024Bn\333\235B\014\303\360?\3030\316B\267\355\221B\014\003/Cz\036\215C\030FaC%I\016Cn[\013C1\014\000CI\222fB\222$IB\3030\217BI\2221Bz\0368Cn\333\313Bz\236%BI\322\rC\303\260\nC\364\274GC\222\344ZC\236\347\303Bz\036\230B\253\352\016C1\014\212B\350y\325B\364<*B\350\271 C=O\330B=ORC\000\000yB1\014&B=O\023C\014C\320B%I\254A\222$\316B\014\303\227B\303\260\310B\303\260\335B\236\247\nC=\317\253Bz\236\307@b\230\276B\253\352\004C\364\274\020C1\014ZBIR\003CI\222)C\350y\342A1L\022Cz\236BB\222\244\021CI\222\302B\30302CU\325\204B\014\303]B%IlB\333\266\250B%\t1C\253*\211Bb\030\212B\267m\217B\364|HC1\014dB=\017\023C\014\203\027C\3509ZCn\333-C1\014\335BI\022\203Bz\236\010B\000\000+C\267\355\204B\014\303\025C=O\221Bn\333\220Bz\236\347Bb\030\016A\350\371\226B%ImBz\236\302B\364\274\357B\253\252vB1\014\242B\000\000\332B\350\371\030CI\222\225B\267\355\\C\253\252sB%I\225B\364\274\215B\267m\nB\303\320\247C\030F\020C\364<\024B\222\344.C\206\341\262B\333\266\016Cz\036 C\267m\300B=\317S@\317s\022CI\222\032C\236g\270BU\325\266Bb\230\014Cn[JC1\014EC\364|\006C\3030\372A\253\352ZCb\230\023C\317\363\303B\000\000RBb\030\215B\000\200\202B\3509iC\303\260\351B\014\303eB\000@4C\267m\302B\3030FB\350\371\254B\222$\236BUU\021B%I\220B\364<\221B\222$\342B\000\000\357Bn\333\267B\030\206\206B\236g\242B\317\363\200B\236g\234B\000\000\000\000\014\303\236A\014\0032C\000\000\265B\333\3662C\206afC\253*\010C=O\017Cz\036\226B\222$\031Az^\017C\350y6B1\014\037A\350ytB\236\347\232B\222$\305B\030\206\203Bz^4CUU\317BU\025\001C\350\271\021C\206a@C\317scC\350\271\016Cb\230\347B\253*RC\000\300\022C\253\252yB\317s\rC1\014\270B\3509iC\364<\006B\222$dBn\333\276B1\214\224B\222d\037C\253\252\243B\000\2006C\206\341\270B\333v4Cz\236\217A\030\006\264Bn\333\211B\000\000\000\000\222$\tBI\322\016C\253*\325B\3336mC=\017`C=O\255B\206aOC\267mdB\364\274^Cz\036\261B\317s\031Cn\333kB\253j)Cb\030\271B\236g\341B\014\303\272B\350y\017C\236\3474B\236g\302B1\014\226B=O\243B\364\2741C\030\006\333B=O\000C\267\255FC\000\200\273B\236\347\025B\3030\016Cz\336oC=\317CB%\t\024C\350y/B%IVB\3336\nC\000\200\022Cz\336\\C1\214\237B\222\304\203C\350y\006B\222diC\206\301\275C\222$\324B\333\366sC\317\363\024BUUuB\364|-CU5\274C\222d\262C\267\315\276C1\014\231An;\300C\222\304\254C\364\\\302Cn\233\021C\222$\232C%IaBI\222\346A=\317\243@z\236lC\030\206\324B\206!KC\3030\200CI\222\370Az\236\007@\000\340\303C\364\374)C\3173\034C\253\2528B\267mDBn\033\311C\364<DC%\311\240CU\325hC\364\274\333B\350\371\"Cn[5C%I2C\253\252\372B\030\206\260B\030\206\033C\222D\313C\222\204\316CU\265\275C\303\320\247C\333V\273C\000`\271C\236\247\255CU\265\250C\236\347[C\350\331\262C\267\315\307CI\322^C\014\303\350@I\022PC=\357\257C\014\3033C\222\244\225Cn\2331CI\0222C\014\303\373B\333\366\232C\253\3523C=\317\nB\000@ZC\333\326\252C\350\371\370BU\3259C\000\000\000\000\333\266JC\364\274*CU\025\324Cn\333\210B\206\241\261Cn;\273C\267m\013@b\030\372B%\211\300Cb\370\333Cb\030cC\364|EC\000\000\000\000I\362\201C\317\223\262C1\254\270Cn[lC\222\244\005C\350\271\253C\364<uB\364<\016C\014\343\226C1\014\304Cn\333\273C\333\266\002C%I1C\222$\021Cz\2360BI\222FBn[[C\267-\\C\014C\242B\333\366\204CI\222=B\222d\363CI\222\016BI\262\260C\236\'\267CI\222\244?\364\274\330B\236\007\262C\333\366\301CI\362\262C1\014\245C\253*\256C\014#\210C\222dXCn\033\275C\350ycB\364\374\205C=\317\323Bbx\214C1\254\344C\236\347\t@\014\303\244B=O\246B\333\266JCn\333tC\267mTB\267\r\250CI\022\032C=\357\261C\364\274\223Bz^\213C\222\244kCz\036\307CI\022\316Bz^ C=\017\371C\236\247yCn[\255C1\014\357A\206arC1LaC\3509\254C%I\"@z>\277C\030\206>Bn\333\266@%\251\230Cz\236MC\236\347)@\333\226\264C1L]Cn;\275C=\317\027A1\014\265CUU\317B\206!>C\222d%CIR\266C\014\003PCUU\003Bn\233\300C\030\2061B1\014\223@\267m\320B\236\247hC\222$\261@\350\371)C\333\3665C\000\000\005C\236g\257C\303\320\252C\253j\306C\222$\273A\236\347\256C\267m^C\364<\006C\267\255\336C\030\006\025C\267-SC\236\347\026C\014\243\230C\350\331\267C\253J\252C\364|VCI\222\244>\000\000 A\236\307\212C\317\363$A\350Y\311C\000\300\026C\014\303\240@n[\257B\303\260\324C%\211\252C=\317\367A\317\363\344@\030\206&BUUoC%\t\254C\014\203\221C\236\307\216C\014c\252C\236\'ZCI\222PBI\362\227C\350y\216AU\265\277C\3030\014?\333v\302C\000\300}C\364\\\217C\303P\306C\3030\301C=\017{C\206\341\246BU\325\031C1L\034C\030\206/B\303\260\247B\206\341\255CbX\036C\253\352\010C\350y\032C\000\300VC\030\006>C\253\252\206Bb\230\353Bb\3305Cb\030\256@UU\325>bX\223C\030\006\307B\253j\223C\000\000(C\253\2522B1\014\303>\000\000!B\350\371\270C\317\363\226B\333\366\313C=\317hCz\376\236C\350\371\307C\253\n\313C\000\200\232C%I~B\030&\245C\303\360\254C\000@8Cb\230\303C\267m\243@\333V\320C\030\006\306B\267M\210C%\351\331C\317\363\020Ab\030\001C\3336\254B1\014\233@1\014C?z\236+A=\357\327C\030\206\215Cb\270\224C=ORCU5\261CbXWC\267\215\256CUU;BI\022UC1\014\203?I\362\247C\030f\306Cn\273\252C\000\200CC\030\206;C%\t\214C\253jSC%\t\270C\253\252\'C\236\347)@\3030\313BIR\262C\317\363 CU\265\302C\236\347)A\000\000qB=\317jC\350\371\200B\317s\202Cb\030YCb\230\230B\206a\315B\317\363\234AI\262\257C\014C\325CU\025\222Cb\270\277C\267M\306C\303P\262C\014CuC\333\366\220C\267\315\257Cz\036\343B\364\374JC\222\304\251CU\025\221CUU\016C=\317\322B=\357\202C\317\363XC1\214\311C\030\006HCIR\202C\253j\222C\236\247IC%\311\tC\222\204\314C\222\204\261CI\022\367B\014#\254CU\325)C\000\240\311C\30300C\014\243\220C\253*\377B\206\341\214B\303\360#C\303\320\276CI\222$?%IXB\000@\031C\014\303\016B\267m\027AI\022pC\030&\255Cn\333\222A\317\363\375B\206a\254B\267\315\243C\317\263\255C\030\006\217B\222$\256Cz~\205C\000\200TC\222$\004CU\325\255B\030\206\003B\000@`Cn\333\262C1\214\035Cn\333\307B\236\347AA%\351\246Cb\030\350BI\222|B\253\252\027B\333\266\345A\000@gC\364\274\302C\206\341\220B=\317\241AI\222#C1\254\317C=\357\304C1\254\254C\364|\204C\030\206wC\206\201\277C\206\301\263Cn\233\306C\000\000\000\000\236\207\246C\3509\247C\3336VCUU\302B\014\203=C\253\n\271Cn\333\357B\206\341\035C\000\000hB\222\204\271C\303\320\276C\000\000\007B\350y\370A\364\\\334C\000\200\360BU\3259C\253\252\341C%\351\207C=/\306C\364\274\254C%)\303C\030\006\320C%)\221CI\222\314B\206\3416C\3173\"CI\022\352B\014c\253C\3173UC\317\363\331BIRKCn\3336>z\236\234B\317\363\270A\350\231\274C\030\206\213C=\317\277A\253\312\247C\350\271\036C\350\231\316C\3030\372B\014c\241C\014\203\263CU\225\274C1\014.C\3336WC\236\347\271@1\014\003A\267\315\254CIRpC\303\320\275C1\254\317Cn\033;C\030\206\315C\3336\000Cb\030)B\267\355mC\3173\255C\3336\227C\000\000\340@bx\252C\236\347DBb\230\213C=\357\214C\364\274bC\317\363 B\317\223\271C\000\000EC\333\366SCU\325\337C\206\341AC%I\346A\253\252\376A%I\246A\000\200\265C\000\300nC%\t^C\364<\357?\236\347\201AU\225\204C\030\206\004B\333v\323C\014\303\007C\350Y\314C=O\265C\222\344[C\206!xCIR\262Cz\236\017A1\014C<\253*-CUUU?I\222\356B\236\'\247C\236g\027C1\014gCz\336\305C\206\301\374C1\014\346B\014\303\300@\317\363@C\030\206\275Cn\333\323B\317\363\264C\3030\342A=\317\232CI2\262C\253\252QB=/\244C\350\031\257C\000@\271C%\311\320B=O\342B\303\360=C\014\3037C\3336]C\267mgCU\365\257C\014\303\374B1l\257C\303\360,C\317s\267C\030\206\251@%I:Cz~\206CI\022\231C\317\023\344C\014\303~BUu\256CI\022\003C\267\r\317Cz>\266CU\325iC\350\371HC\333\366HC\364<\317?\253\352NC=\257\265Cn[\330B=\317\353A\267\255<CIr\332C\236\347\026Bz\236\036B\317\263=C\333\266;C\206a\210Az\036\247Cb\230\013C\317\323\216CU5\225C\253**C1\214\267C\3173\246C=\357\311C\317\363\331B\014\303HBUU)C\253*\016C\3336{C\222$}C\303pPC\000 \257C\236\'BCb\030F@\206\241FC\350\031\251C\350y\313B\253\352\270C\222\244\370B\222\3447CI\022\303B\014\343\252C\333\326\221C\364\274\236B\000\300KC1\014\200B\014\003\226CI\222\244>z>\270C\222$CCb\030\277Cb\370\270C\267\355\252CIR\303C\267\255\200CI\222/Cb\370\310C1\214\234C%I\246C\3030\024B\206\301\230C\253\352\251C%I6C\317\363$Bn\333\262C\364\374\257C\267m\001CU\325\244C\3173\277CU\225JC\267m\253@\364<DC\350y\320CbXbC\206\001\211C\236gVC\350\271;C1\014WB\030\206q@\014\303\024B\3173\264Cn[\020C=\317s?\000\000\000\000\206\341\245B\317s\310B\3030=C\267\215\216C\000\300bCn\333\232A\030\346\313C\236\'\031C\350y^?\236G\310C\333v\262C\030\006\224C\206!\256C\267}\002D\000\000\232A\000\200:C\206\201\247C\267m\271C\222\244=C\030F-C\317\363\251C\317s&C\236\347IB\3509gC\222$\\BI\222\255Bz\276\272Cn\333v@\3336{Cb\230\374B\000\200\356B\333\266\nB=O\016C\303P\231C\014\343\224C\030F\tC\000\200\345C%\tVC\333\266m?\014\343\273C\000\200\214Bn\333\335Cn\033GC\267m\333B%I\nA1\214\240C\364\374#C\030\346\256C\303pjC1\014\365B\3509-Cb\230\207C\014\203{C\364\334\260C\253\n\330Cn\333iCn\033KCz\036\032C\253\312\301C\267-\272C\350y\'C\206\341hC=\257\251CU\225%C\206a\203Bb\030\023C%I\"B1\314\033C\014\303\"B\206!\273CU\325<Cb\230\246C\206\001\302C\303\260\273C\364<]Bbx\232C=\017TC1l\274C1\014oA\236\347\372B\000\240\301C\303\020\273C\364\\\212C\303p?C\267m\327BU5\235C1\314\302C\364\274\213B\000 \263C%\3114C\3336\372B\030\346\220C=O\234C1L]C\267m*B\000@*C\236g\306C\333\266\355B\014\303\260>\222$\361@%i\332C\000\000\366A\030\206DCI\3221C\030\006FC%i\300C\236g\337B\222\304\302C\364\274\244Cn{\271CU\325\347B\333v\010C\317\363\242C\000\340\246C\000@~Cz\336\201C\364<kAU\025\025C\236G\332C\000\000\244A\350\371\225C\0306@DIr D\014c\276Cz\216[DnKlDb\200\201D\317S\204C\236\007qDn\033\377Cz\376\005Db8\340C\333\236\202D\253\032GD\364<XCbx.DI\202\010D\000\240\312Cb\030tB\222twD=\257\271Cn[%D\030\206rC\317\243mD\000\340SD\303P5Dn;\302C\33366CIr\301D%\311^C\000\000<C\000@\tC=/\317Cz^)D%\311\327C\267-\312C\333V$D\000`SD\000(\205D\364D\206D1\014\203C\206\261\237D\364\374\031D\206\201\200D\350\tvD=\017\331C1<\215D=\317\250D\253\312\\Dz\276\031D\253\352\301C\030>\310Dn\233\000D\206\001\220C\206\361\221D\364\374\271D\267-\311C\000\300\311C\253\312\336CU\245@DU\365`D\333V~D1l\235D\014C\275C\206\001\276C\0306/D%\t~Cz>\300CU\225RD\350y\206An\333\231C\206\341\307Bb\370\230C%I\324C\030\006WCn\273\264C\000\000#D\350\271eDI\"rDz\236\315Cb\330\256D\253\252pC%\271]D\253\352/D\253\352[CU\365\243Cb\200\204Db(:D1\214\303C\0306\206Dz\016=DI\222\257CUu\310C\317\223\271D\364\274\300C1\234dD\206I\257D\333\216\270D=\327\201D\317\223<D\267-\203D\206\221+D\253J\247Dz\376\nD\2367\021D\350\351\024D=ohD\333V\362Cb\330MD\267M\305Cn\373\301C\236?\307D\030f#D\206\221\204DUU\354B=\317cC\030\206\312BI\322\nC\333\2063D=\017\307Cn[rC\253\032\014DUUQCz>\264C\350\311TD=\257\264C1\014\311AU\355\267D\364<\245A\030\306\246D\014\203\356Cb\2103D\030fUD\317\003oD\350\371\025DIB#Dz\036\223B\303\320\210D\350y\004BIj\212D\333V\205C\303P-D\0306\033D\030\346\236Dn\013\201Dz^KC\317\263,C=\277VD\014CqD=O\310C=\317\253D\303\220\303C\236w\026Db(BD\3509\330C\267U\253D\267\r\355Cb\030LB\350\371VD\014\023LD1\274lD\206q!DU\365}D\030f\357C\253J0D\317#gD1\274*D\317S\336C%)\234D1<\010D\236W\230D=O\274CU\025mC\364\274pC\236\347\230B%\201\205D\253J\257D\030\266&D=\217\310C\253z?D\253\nUD\236\347\tBz>9D\030\226\003D\333\266#C\364\324\205Dz\036\017D=W\260D=O\351C\014\003#C\364,9D\350\331\274Cz~OD\206\321YD\030\246\221C\206\241\014C\267\035*DUE\037D\222d\021D\303\2606C\236\007\256C\014C\215C\333vUD\317\303!D\000\300JD%\211\305D\253\202\251DU\025\\Dnk\274D\253\372\005D\333\226\231C\317\343\'D\253\252qC%IvC\317\323\254Cb\230$C1LTC\333f\027D\267\375kD\364\\\356CU\025\272C%)>D=\217ADI\002bD\267\355\\C=\017\177D\222\024\027D\253\n\036D\222d\002D\253jYC\222\244;C\206!\357C=\277zD\014\023\022D\236G\277C\253\212OD\267\255oC\030&\311C\206!/D\014\343\322CI\222\244Cz\376ID\267\025\270D\236\027\035DzN1DU-\220D\333V\274C=\017\306CU\025^D\014C\336B%I\241B\267-\177C\3030\027Bn\333@B\000\000\271B\267\255<Cn\333\230CI2\377C\364\374\001C\253*\261B\267\355\373B1\214yC\253\252\266A\364|xC\267m3Ab\030$Bn\033RC\014\203\032C\014C\nD=O\221B=\317\311A\014C\177C\3030\367CU\025\350Cz\236#B\317s\221B\236g\276B\253\252\262Bz\236&B\364<\312B\253\252}B\222$*C\317\363@B%I\020B\222$<Bn\333\345B\350ynA\253*\365B\014C\014C\222\204\254CbX\035CI\322\025Cz\336\245C\3173\251C=O\356B%I\277Bz\276\323C=\317\214B\3030-B\267\355\222Bn\033CC\267\r\330C\267m/C\014C\227BI\022\001Cz\3361Cz\236xBI\022ZC\364|\305C=\317\273A\236\347\'C\0000\014D\206a.Bb\030!B\222\244\000C\253\252aB\3336\216B\303\260\200Bb\370\346C\3173CC\317s\206C\253j#C\000\000lA%IqBI\022sC%Y\023Dn[\"Cb\030\256B\253\252\001B\303\260\374Bb\030\006C\364<CB\030\206=B\030\006\250B\364\334\331C\253\252\325B\3030\tB=\317VC\206\241cC\303\360cC\222$3C\350\371\377B\236\347bB\253\252\336A\014\003\233CI\222\214B\350y1B\014\303\327B\014\303\010A=O\357B\364<\245Ab\030\265C\030\006\010D\267\355\341B%\311\322B\3336\275B\253\252*?\364<\233BU\325\337C\317\363eB\236g\264B=ORD\030\206\261B\014\303XC\000\200\236Bn\333\312A\000\200\003Cn[\305B%\311\317B\030\206\336B\267m\323@\317\363&B\236g\215B\333\366\034C\333\266EB\253\252$B\253j\327Cb\230\374B\206a A\350\371&C%\311\335B\222$\223C%\t\004C1\014OCI2\225C=\217\nC\333\026\355Cn\333CC\236\347\017B\000\200GCb\030\264B\222$\215C\000\300\361C\030\206\213Bb\030YB1<\'D\206\341\262B\030\206\325AUUNB\030&\344C\364|,C\030\006\261B\222$\021C\253\n\204C\222\244\302B\3336\367Cn[\220B\000\000,Cz\336\335C\267-<C\000\000\357B\267\215\002D=\017\331CI\022\225Bz\236xBn\333\306@\236\347\nC\030FzCI\322)C\236\347\203A\317s\310B\014C\025Cn\333kB\222$\272B\333V\243C\000\0005C\267\355.C\267m\264Bz^5C\000\200\237B\267\255\024C\236\347\031A\317\363\257Bz>\002D\000\000\000\000\364<\214B\014\303\253BIr\222C\236g\261B\267-\000C\350\271\'Cn\033\"Cz\236NB\303\360\367C\317\363\250B\333\226\247C\364\274\267B\333\266\245B\350\3718C\206a\005D\350y\376?b\030\214A\030F\005C\222$\032Cz\236\344B\317\263\nCn[(CI\022\236B\267m\272B\350y\036A\014\303\255BUUmC\364\274\271B\3030\226A\267m\017A\000\200sCU\325\000C\364<\311Bb\030\234B=\317%C\364<\237A\364\374\020C\267\355JC\267m\205A\3336\244BI\0224C\303\020\264C\206\201\325Cz\036\247B\253\252\251BIR\010CI\322\272C\364\374qC1\014\301AI\222\272Bb\230\263B\364<{B\236g8Cz\336&Cn\033$C\267\215\341C\267\255BC\350ylB\303pQC\222$\247C\222$\024B=O\224B\014c\225C\222$\022C\000\000\010C%I\022C\350y\247C\3336\372B%\t\013C\014\303\014C\236\347*B%)\341CI\262\005DUU\215@\236\247\010C\000@$C\222$\363B\206\201\364C\3173TC\222$\030C\253j\013C\014\343\307Cn[\227B\333\266\026BbXBC\3030>C\267\355\242C\317\363\\@z\336IC=/\203Cn[GC\222\304\243C\206a,A\000`\327C\350y:CUU\rA1\014=C\030\206\245B\253\312\224C\350y*B\317\363\203Bb\330CC\014C\313B\350y\307C\267=\007D%\311\340Bn[0CI\022\322B\236G\267C\267m\343A\350yjB\333\266\352B\030\206\022B\206a\252B\000\000dC\364\274gC\267m\031BU\225tC\267\r\352C\206!1C\317\363\332C\333v\230C\333\266\301C\303\260\373B\206a\366Cb\030[C1\014eB\222\3446CUU1Bn\333\300Ab\030\032Bn\333\207Bz^\215C\350y\200C\303\260\244B\014\303\264B=O\000Cz^6C\014\003GCn\233\315CU\365\211C\317\263FC1l\263Cb\030yB\267m\252B\364|!C\350\371\323B\364<kC1\214KC\236\347\301@\303\220\257C\267=\rD\317\363\314BI\322\017C\350Y\320C%I\222=\014C\277CI\022\252C1L\rCU\325\203Bn\233\313CUU\216C\222ddCz~\250C\267-KC1\014SA\236\307\206C\333\006\005D=o\217Cn\333\326A=\317\331Cz>\334C\333\266IC=\317[A1L\335CU\025\330C=O\260Cb\030-B\030\246\306C\014c\223C\030\006\255Bb\230\235B=O\327Cb\370\302CI\222\320B1\014?A\350y\310CIr\327C\253\252!C\014CJCUU\220B\350\331\326C\222\244\257C\000\300\014DI\262\304C\253\n\311C\267M\261C\267m\002B%\t\260C1\014\256B\3030\030B\014s\010D1\014\233@\267M\003D\000\000\000\000\222D\335C\350y\036@z^\nCI\222\231B=o\327C\267\255\005C1\254\206C1\214\246B\364\374/C\317s\331Bn\333\336C\267\255\277Cn;\257C\267\355\256CI\222\213Bn[uC\030\206\307A\267m\256C\350y\016CIr\330Cz~\375C\206\201\261C\350y7Cn[\310C\3173\344C\317\363\266Bz^\212Cn\3333Bz\036\316C\364\334\217C\3336\310Bn\033\021C1\014\303>\350\371[C\350\231\256C\3173\214C\333\2667B\222\304\232C\014C\237C=O\316C\000\340\014D\350y\275C\222$\246B=O\022C\206\341\211C\303p&C%\t\244C%\211\001C\364<\225B\303\260\203B\303p\257C\267\315\330C\253\352\036C\222\244\232Bb\370\260C\222\304\246CI\222\244C\333\226\247CUu\005D\222\244\255B\3336\340C\303\360NCb\230\274C\222$\371CI\262\303C\236gdCb\270\313C\014\243\202C\030\206\204C\253\252\212B\267\355\300B\350Y\251C\030FOC%\351\325C1\014fB1\014~C=\317\201B\222$\351?z\336KCz\236\305CU\325\270C\030\006\306C\267\355\245B1L,CI\222\276B\267m\345A\253\352\023C\350\231\336C\000\000\250@\000\020\000D1,\326C\333F\016D\317\363\312C\317\363<BI\222\361B\000\300\000C\030\206RB\333\326\336Cb\030\222B\267m\024B\303pwCn\333V@\236G\272Cb8\216C\317\363\202Cn\373\342C\206\341\213B\303\360uC\303\360\325Cz\236\016B\014\303\313Bn[\375B%\211\332C\267\255yC\222D\355C\253\252\302@\253\352uC\350y\007B\222\004\303C\3336\314B\364<-C\030\006\316C\030&\273Cb\330\272C\030\206~B\364<\225C\206a\223B%\311\235B=\257\314C\317\223\205C\350\371\376Bn[\255Bz^#C1\014C<%\311\302C\014\303\214B\3030\234Bb\030\334A\333\026\276C\253\352\347C=\317+A1\014\243A\253\312\326C\350\371\203C1\214\202B1\014$C1\014\237C\014\343\250C\350y\224Az\036\227BUU\315@%I6C1\214\010C\030&\346C\317s\334C\206a\314A\222\204\224Cz\276\340C\253\3521C=\017\304C\364\274CC\014\203\220C\267\315\324C\014C\266C\014\203\031C\206\301\367C\3030\226A\350Y\223C\253\252\260A\236\207\344C\236\347\254B%\311\206B\303p\256C\253\252\217C\303P\312C\3030\340B=\357\251Cz^lC\364\274\376B\364\374\334C\267-\257C\000\200\313B\222$\225B1,\232Cz\336\221C1L&Cb\030\276@\253j\306C\222$\344C\014\003\351C\253\352\300CUu\334C\303\360\220C\206aYB\000\000\277B\253\312\226C1L%Cb\230\206CI\222@A=\317 B\000\300iCI\222PA\333\316\227E\000\000\356A1\314mC%\211\213C\253\252\002B%IVC\222d\206C\014\303\214C%q\007En\3336B\222$9Ab\030\260Bn\333\232B\222\344\216CUU\325?\267\355\255Bn\333FB\267\355_C\350y\202Ab\030\242B\3336\362B%IzC\333\366*C\236\307\217C\253\252\256Az\236=B\253*SC\222$NB\3030\010C\206A\225C\303h\355D\222$\264Bb\030eB\236\347\366B\236g\201BI\222DB\206a\366B\350yrAUU\230B=\217qC\206\201\200C\206\341\375B\3030\315B\222\244\226B\317\223\272C\206a\221B1\314JC\267\355\325B\253\252cC\3030\246B\253J\223C\253\252\017C\000\000\226BbX\265CUU\205AUUE@\014\303\314A\014\303\324C\267\255SCz\236aB\267mK@\014\303\354B\222\004\213CUUTB\014\303YC1\314$C\014\003^C\030\206\261@\333\266\212C\253*IC\333\266QA\000\200\324B\253J\232C\303\360BCb\230\360B\222\244\200B\222$qA\267\355\222B\317\023\224C\364\334\215C%I\024C\350\371\315B\333v\027Cz\336\230Cz\236\376B\014C\255B\333vFC\236\347GB\030\006\362B\236\247(C\236g\310Bb\030,C%I\376A%IcB\253*\020C\236gBCz\236\320BU\325\211Cb\030\006@=\317\215B\333\366\"CU\225\022Cn\333AB=\317\361A\3030[CU57D\000\000\014B%I\214B\350y\016@\014\303p@z\036\232B\317\363\257B\3030\251B\000\000\270@\303\360\030C\000\300KC=\257\206C\222$BBn;9DI\222\226A\000\200\242B\206a\030@\253*BC\253\n\211C\350y\276A\206\341\344Bz\236pC\267mgB=O\177C\014\303\267B\030\006\rCn\313CDI\022\017C\206\341\014C\253\252\312B\333\266\236C\317s\232B\253j\037C\364\274\252B\317\223\216C\333V\227C\014C\270B\253\252\236A\222$:B\253\252\302@\333\226\206CI\222\324@\206\341\335Bb\330\213C=\317oAUU\010B\364\334\213Cn\233@C\3173iC\222d\030Cb\030pB\317\363\344@\350Y\242CUU$B\317\363}Cz\236\247?n\233\240CIR\016C%IdC=\317#B\206a A\236g\210Bb\030\246?\014\007cE%IZAz^sCb\030\010B\000\000\004A\222$gBb\030?C\030\206\361A\222\244\204B\350y>@\000@?C\222\244\216B\030\206\326B%)\215C\000\000\nB\267m_Bz\036\217B\364\274\235C=\257\221Cz\276\202C\030\206&Cz\236G@\317\023\262Cz\336\037C\000\000\365B\267m\320B\014\303\215B\317\263mCn\333\266>\236g\021C=\317\267B=\317\221A\317\363`A=\317\251A%IpB\253\252\372@\222$9B\000\000lA\000@AC\317\363@B=O\312B%\311/C=\317#A\000\000\000\000\317s\213B\236\2470C\253\252\312?1\014\003B\222$XC\317\363\025C1\014\262B\267m/B\206\341\nC\3030qBz\236\200B\206\241,C\236g@C\267\355\311B\267m\375B\222\344QCU\325\321B\014\303\005B\267m\273A1\014\353@\000\300\217C%I\\B\014C\357BU\325\020Cn\333\234BI\222\364B\236g\213B1\214\232B%\311\266BU\325\001C\350yfB\267-\003C\206\341\000C\364\274\370B\000@!C\350\371\256B\267\355\240Bb\230\347B\350\371\222B\000\300(Cz\236\315A\253*\026CUU\365Bz\036\377Bz\236|B1\314(C1\014\266B\303\260\334B\236\347\267A\222$tB\000@$C=\317\376B\364<\201B\222$BB=\317\356BU\025\rCn\333\270A=O\335B\303\260\264B\303\260\242B\3030\014A\206a\366B\206a\255B\303\260\tC\3336\332B\222$\233B\364\274\346B\000\200\334B\267m\342B\267m\321BI\022\264BU\025ACn\333\303Bn\233-C\253\252\330B\222\244\262BI\022\357Bb\330\001C%\311\204B\000\000xBz\236\005C1\014\356B\3030\\Bn\333\004C%I\372B%\311\333B\3030\374B\222$\034B\253\252\rB\253\352\004C\364<\325B\000\200+C\014\303\331B\014\303\004C\333\266\221BU\325\245B\267\355\250Bz\036\313B\267\255%C\222$>B=O\020C\303\360\031C\253\252wB\236\347\255A\3030\003C=\317\242Bn[\247B\014C\320Bb\230\017C\364|\016C\014\303\271Bn\033\"C\3336AC\317s\304B=\317\243@\350\371\277B\030\206|B\014\003FC\030\206\272BU\325\243B\253\252\302B\267\355\301B\206a\334Bn\333\215B=\317\247B\206!\000C\236\347\305Bz\336\001C\014C\026C\014\303\301B\206\341\336B\014\303\251B\303\260\336B1\214\326B\222\244\351B\267m\224Bb\230\267Bn[\361B\364\274\016C\3173$C\333\266\266B\3030\316Bz\236\021C%I\343B\222\244\360B\317\363\357BI\222\217Bz\236\233B\222\244\315B\267m(B\014C\237B\317\363\312B\222$\370Bn[\352B\206a5B\030\306\005C\014\303\010B\206aMB\317\363\014C\222\344\007C\364\274\001Cn\333f@b\330\010C\030\006\376B\000\000\000\000\350\271EC\000\000\004A\030\206\207A\236\347\240B\267\355(C\303\260\254BUU\261Bb\230\377Bz\236\257B\222\2443C\000\300\004Cn\333\002C\030F\026Cz\236\311A=\317\215Bn\333\006C\030\006\367B\303\360\035C1\014\361B\000\000\"B\253\252\252=I\0222C\317s\335B\206\341\363B\000\200!C=\017\016C\3030mB\222$(C\253*\354BI\222\016C%\311\244B\253\252\355B\333\366\030C\253*\225B\014\303\216BI\222\002CI\222xB=\017*C1L\001C\364\374\000Cn[\247B\3336\270Bn[\357Bz\336\027C\206\341#C\364<\336B\3030\372B1L\"Cn\333\307B\236\347&C\236g\350B\333\266\240B\364\274#C\222\244\367B\364<\276Bz^\021C\253*\tC\3030\377B%\311\303BI\222\261Bn\333\240Bb\230\235Bz\036\234B=\317\233BUU\203Bz\236\353B\317s\367B\267m\254B\222$\260B\222\244\303B\3336%C\236g\210B\206!\002C\014\303\276Bb\030\255B\236\347\251Ab\030\037C1\014\252B\014C\034C%I\216B\206a\232B\3030\336A\206\341\320Bn\333\257B\206awB\303\360\002C\317s\365B\030\206\306B\267-\"C\014C\366B\317s\013C%I\030B\350y\336B\000\200\261B\364\274\'C%Ib@b\230\260B%\311\350B\333\266\265BUU\017C\030\306\034C=\317\202BUU\335@\206\341\276B\364\274\231B\206!\tCn\333\303Bb\030\265B\030\206\033C\3509aC\267m\037C\000@\025C\222$\361@z\236)C\014\303\343B\364\274\272B%I\304B\236\347\030C\350\371\020Cz\036\333B\267m\353B\317\363\"C\206\241,C\3509\014C\3030\371B\267\255\001C\253*\367Bb\030VB\364<\375B\267m\276B1\014\216Bz\236\010Cb\030\210B\350y=B\030\206\222Bb\030\253B\31732C\014\303DB\000@\020CI\022\325B\317s\226BI\022\331B\253\252\214A\222$\343B\3336\272B\000@9C\3030TC\253\352\032C\030\206\264B\317sTC\350\371\373BI\022\361B\014\303\000C\267\355\026C\000\0006Bn\033!C\350\371\317Bz\236\317Bz\236\037Az\036\350Bz\036-CI\222\341Bb\230\233B%I\023Cb\030\263B\000@\030CUU\364B\206\341\023CI\022\256Bb\230\301B\364<\237A\030\346\253C\253\252\036A\030\306:C\3173#C\350y\272B\000\200\334B\364\274\021C\317\363\320A=\017\032C\253*\354B=\317xB\303\260\257B\206a\266A\222d\007CI\322HC\253\352WCI\222\027C1\214\"C\000\000\000\000\303\260\314B\303\260\311B\236\347\275B\030\206,BUUHD\303 \202D\364<\313B\333\366\005C\267m\322B\317s\027C\317\363\035C1\014\361B\222\244\341B\206a+B\000\200\327B\014\303\346B%\311\206B%I\006A%\311\035C=O\002C\206\341\355B\206a\024C1\014\263Bb\230\304B\267m\267B\253\352\007C\236\347\006C\333\266\344B%I\264BI\322\022CI\222\222B\222\244\342B\350\371\265BUU\001A\253\252*?\000\200\027C\206\2410C\267m3A\364\274<C=\317\017An\333\256@\364\274\351Bz\036\341B\236\2476C\317\363\033Cn\333\302A\253*cC%\311\274BI\322\001Cz\236gB\030\006\305B\350\271 C\267\355\353B\350\371\366BI\222\267B\333\266\340B\206a\204B%\311\350BI\022\323B\236\347\321@\364<\002C1\254LD\317\363\246B\317\363\332A\206\241=C\000@\rC\364\274\351Bz\236hC\317\363LA\350y\340B\303\360<Cz\036\032C\350y\226@UU\240BUU\375B\222\244\317B%I\301B\000\000\000\000\350\371$C=\317\204B\000\000$CU\225\005C\206a\025C\253\252\342BUU\013C\317s\323B=\317,Cn\233(Cb\230\241BUU\001CI\222KC=\317\002Cz\236\365Bn[\376Bn\333\"C\317\363\355Bb\030\232AU\225KCb\030\240A\206a\373B\267\255QC\206aZB=\0174C\317\363\367B\000\000\373B\364<\tBn[\347Bn\233\341C\236\247LC%\t0C\317\263\002Cz\236\335B\206a\025Cb\230\363B\206!hC%\t?C\206!\035C1\014\274B\222$\363Bn\333\220B\206\341\205B\253\252\323BU\325\350B\317\363<A\014\303\033C\222d\026C\267\255[Cn[\367B\206a+CU\325\364Bn[\332B\000\200\350B\317\263RC%I\316B1\214\372B\222$\262B%\311\374B\364\274\341B1\214\216B\030\306\014C%\311\001C1\014UB1\014VC\350yNA\000@\005C\3336\334B\350\271GC=\317\031B\267-\026CIRMC\222$\341B\253\352\026C\030\206\317A\333\266\335A\267\255JC\350\371\344B\350y\356@\3336\302Bz\036\340B\014\303\334B1\214\002C\350\371\312B\222\244\344BUU\025?z\236hBn\033\020C\317\363RC1\014\017C\317s\345Bn[%Cb\030\362A\014\303\'B1\014\361B\014\303\351Bz\236\347A=O\354Bb\330\006C%I=B\350\371\027C\206a\206AIR@C\267m\227B\3030\361Bb\030\246B\253\252\020C\206a\360B\000@\024Cn\333\316B\317\363\364B\3030\375B\267\255#C\222\244\343B\030\006\035C\350y\246B\253*\374B\3336\375B1\314\tC\206a5B1\014\362B\333\266EA\303\260\347B\3173\001C\014C\003C1\214\371B\3030QB\206\341\333B\206\341\276B\364<\330B\014\203.C\236\347\276B\303`.Dz\036\353B\030\206\355B\030\006.C\253\312\250CU\265\222C=\217-C\253*\311B\014\003MC\014CxC\364|qCUU\201Ab\030\220B%\251\226Cn\233#CU\325\253C\364|BC\253j\277C\333\266\007C\253\252\231B\333v\001C\3030\357Bz^\223Cn[\210B\333v\tC1\014^C\206\341\rC\236\247\013C1L[Cb\330ICn\233\262C%\311\006Cz~\255C=O\326B\222$NC\206\301\226C=O\321B%\211>C\236\347^C\364<BCb\230\374B\236\2470C\206a\001CUu\316C\222$\361B\014\003\210Cb\030=C\236\347\371A\303p\005C\222$\022C\000@kC\000\240\252C\253*\270B%\t5C\3336\274B\364|\032C=\317)B%\211\007C\253J\255CU\025!C\364|IC\236g\nC\206a\255Cn\333\263CUU\021C\333\266\364B\303ppC\030f\231Cz\376\326C\364|\334CU\025\014C\206\341\322B\3030\016C1\014BC\333\366\177Cn\033\273C\303p\343C\222\244\300B\3030\217Cz\036dCb\030\"A\222\344GC\317\363\030B=OBC\267-<C\000\300\tC\014\343\332C\253*\rC\222\244\253C\333\266cB\206\341\235C\350y\254Cn\233\215C\317\323\337CI\022\270B\206\301\241C\364\2741C\000@+C\267m\354C\350\371\016C\206a\035C\253\252\206AI\222+B\000@0Cz\036\226B\014C\336B\350y\312C\014C\315B\000\000\302BU\025\001C\333\026\267Cb\030#C\236\347\333BI\362\312C\333v)C\236\3471Cz\036GCUU@B\267m>B\236\'%C\267m,C\236\'\025C\253\252 C\3509`CIR8C\303p$C%I)C\000@\276C\333\266\rBz\036\014C=\217CC\333\2665BU\325\273B\333\266\266B\317\263\233C\317\263@C=\317zCz^^C\014C\373B1\014?C\350y.@\364\274\250B\000\200\277C\253j%C\267\255\253C\014\303\376BUU\256B\000\200yCUUbB\253\352\201C\3336FC\3509\021C1\314\236CI\222\006C%\311[C\267m\276B\014c\252C\000\000\305B\030F\250C\222\204\227C\014\343\201CU\225\014C=\017QC%\311\365B\333\266\343B\3336DCn\333\001C\303\260\020Cb\270\246C\303\260=C%)\332C\236g\311B\030\006\224B\364|/C\206A\205C\350\271UCn[-C\303\2608C%\3115C\350y\'C\253*\014Cz\236\010C\222\204\246C\253jIC\222\244\rCz\0361C\014c\316Cn\233\027C\303\260aC\364<\263CUU\317B\267\355\301B\333\266wB\3173\007C=\217)C=\317\007C1L7Cbx\245CU\325^Cn[\354B\364\274\306B\030\306\253C\3336\233C1\214\340B\3336#C\030\2065B\253\352\211C1\214\"C\364|\254C=o\223C\222\244\375B\364\274<C%\311rC\3336\345Bz^\032C\030\2064C\206\341\253C\333vHC\350y.C\014\243\263C\222\344\026CI\322\023C\000\2002Cn\333LC\253\352FC\303pECI\222DCI\022PC1L\312Cn\333\337B\030F@C\014\303\261BUU\376Bb\230\216B\303\360\247C\317\363qCz^\023C\3509\255C\236\247:CUU\332B=\017QC\350\271\004Cz\236\317B\222$\034C\206\241SCn\033\\C\364<7A=O7C%IrB=\317KC%\t\035C\317S\222C\253\352\005C\222$\215C\267\315\253C1,\306Cz\036\371B\350\271\022C1\314\016C%I\212An\333\361B\236gaC\014\003ECIR/C\000\200\274BI\222\246Bb\330\236C1\254\233Cz\236\014CU\325\004C\222$7C1\014\360B\267\255\014C\222$\tC\364\3744CIR\027C\317\363\302Bb\030ECU\3252C\350\2719C\236g\363B\030\306oC\206a$Bz\236\376B\030f\274C\222\244-CUu\253C\317\363\302AI\022\253C1\014\353Bn\333\237C\3509\263Cz\036\025C\317\363\341B\333vOCU\025]C\350\371\312B\222d&C%\t\003C\333V\236C\253\252\263B\000\300,C\253\352\023C\253jFCU\325\036C\267\355\274B\267\255\300C1\014\236B\236G\217CUU\025A\267mRC\267m$Cz\336\rC\222$]B\014C`CI\022\347B%\211\005C\364\274\035C\317\363\204B\364<\372B\333\266#C\253*\270B\206a#Cz\036jCI\222\345C=\217\006Cb\030\357B%I2C\014C\354B\236\347iB\350y\361B\303\260\274B\333\266<C=O\352B\364\374\254C\317s\317B\350\371:C\014C\223Bb8\253CU\025/C\030&\242C\317\363\362B\000\000?B\333\366\253C\206\201\215C\317\363uB=\317\014C\3030FC\253J\216C=/\336C\3509\004CI\222\226BI\222\273B\303\260\374BI\222\303B1\214\031C\333\026\235CIr\256C\253\352\216C\236gAC\206\241\022Cz^BC\206\241\212C\222$yB\222\204\331C=\217\222C\364\274\036C\014\303\024B%\t,C\350\231\336C\303\260 C\350\371\006C=O\321Bb\230\025CIR\005C\3336\001C1\014\346B\267mvB1L\033CIR\257Cz\236\031C%\311\222CU\025\254CI\222T@\364\334\253C\014\343\256C\3030\330A\364\374\023C\350\371\341B\317sFCI\322.C\350\331\305CI\222\316Bb8\213C\350y\030C\333\326\263C\000\200\375Bn[\363BIRMC\267\255\001C\014\303\337B1\314FC\303plC\364\374$C\350\331\312C\222$\325B\317s\007C\3336\020C\267\255[C\000\000\253B\267m\213A\364\274\304B\267m\223A\236\'\006CI\222\017C\303\360-Cb\030\274Ab\270\246C\364\374?C\350ywB\206a\272B=\017\212Cz\036\246B\014C-C1\014\017C%\311\222CbX\013CI\3228C=\017\001C\317\263\013CUU5A\236g\265C\030\206\317B\030F\031C\350y\026CI\222\262B\333vbC\030F=C\350\271.C\253\352\254C%\311\261B\222$\005C\253\252\235BbX\241C\317\363\375B\014\303\373B\014C\241C\350\371\336B\364<\221A\364<\341B=\217+C\303pCCn\033RC=\317\311A\222d\001Cz\336KC\000\000\034Cz\236\303B\303p.C%I\341Bz^\021C\267\355&C\333\366gC\236g\242B\3030fB\253\252\305B\014\203)C\364\034\241C\030\2063B=\217\024C\317s(C\333vJC\3509\027C\317s\261B1\014\206C%I\366A\206a\002C\030\006\252Cn[\035C1L\001C\267\255\254C"
      }
    }
  }
}
node {
  name: "tensors/component_2"
  op: "Const"
  device: "/device:CPU:0"
  attr {
    key: "_output_shapes"
    value {
      list {
        shape {
          dim {
            size: 3602
          }
        }
      }
    }
  }
  attr {
    key: "dtype"
    value {
      type: DT_FLOAT
    }
  }
  attr {
    key: "value"
    value {
      tensor {
        dtype: DT_FLOAT
        tensor_shape {
          dim {
            size: 3602
          }
        }
        tensor_content: "k\312\022B\000\000sC\022\367\360Ck\212\220C\320\027\243B}A!Cw\304\262BeM\377BMY\010C_\220\314C\2178\013C\271#\014B$\356\202B\030\364%@w\204\271CYSTB\233\262\246@\350\013\321B\342\216hA\000\000\000\000\320\027JB\000\2002CM\331\013CS\326\004A\022w0B6e\221A*k\035CwDPC\233\262\354B\356\210\245BYS\336A\241/XB\233\262\032C\312\232GC6eaBS\326,B\000\200\032C\225\225CD\233\262\357B\022w\366BeM\361A\036q\277A\350\0130Bk\312zC\211;\236A\364\205\017C\263&\036C\356\010\031D\2178\253C\217\270YB\211\273JC\000\2004C\000\000\000\000\014\372\202B\022\367\223CS\326-CMy_D\203>\273C\334\321\326C<\342$B\000\000\000\000\255)\256B\217\270NC\271\243FC<bpD\312\332\263C\000\000\000\000\217\270\rB0\350\360B$\356\343B\030\364\331A\326\024-C\326\224\335A\022w\227B6\245\207Ck\312fC\372\202\251B\030\364\'B\036q\004C\334\021gBA_\370A\000\000\000\000\217\270\323B\022w\344@6e\211A\263\246\254?k\312\272@\233\262\202A\364\0050C\255)\356B\241o\304CG\3348C\014\372\"@\203>\006C\312\232tB\030\364\323B\000\000\000\000Y\323QC\000\000\265B\350\013\314B\255)eBeMTC\211\273\034C\225\265\023C\277\240\257?\000\000 B\277\240\246B\271\203~DG\\\007C\320\227\'C\263\246,C\342\216\273B\000\000\000\000\233R\022D\247\254\031A\326\0241Ckj\034D6\345.C\217\270cB\320\027<AA_\227B\030\224\025D\030\364\037C\000\000\000\000\014\372\317C\271#\336BG\334\303C\255)\211B\006}\035B\271#\202A\342\216\242BA_rBw\304WC\233\262LC<\342\032BeMHC\372\202.A\255)\253@\000\240\017D\217\270/B\000\200\024Cw\304;B\271\243\023C$\256@D\233\262\375B\255\251 CYS\003C<\342\016@\334\221zD*k\032C\233\262tB*k\272B\263&\002CA_\247C\247\2542C\030t\013C\022w\223BA_\234C\000\000vB\326t DM\371\021D0\350\323B\334Q\201C\372\202\206AG\334\262B\241o\343C\217\270#BS\226\352CYS\205B\203\276\324A_\3209C\241/(B\255\251\033C\006=\371C\304\035\261?\326\024\016CG\334yB<b2C\312\232\354B\000\000\000\000\217\270oC\271#\002C\334\021\357A\2255\265B\2332`C\000\000\000\000qG\376C\2255\231AG\\\211D\326\224\001CeM\374B\350\013\356Aw\3049B\241/\230A\334\221\031CS\326\323B<\342+CG\334GC\217\270\326B\014\372DBY\223\205C_P\rC\277 7C6\245\203C\312\232\235B\326\224aB\271#\356B0hOC\233\262lC\036\361\026C\271\343\324CG\334\005B\211;6C\356\210\256BS\326\333B*kpC*\353\314C\203>fC\000\000\000\000\271#\246A\225\265\023CeM\033B\263&-C\000\200#C\320\0270B\342\016IC\036q\233C\000\000\000\000\241/\267BMY\233AS\326\001Ck\312\301B$nWC_\320\005C\233\262\032C\312\232\030C\022w\240A\271#\032Bk\312\316B\271\243qC\277\240\023B\000\000\000?\326\324\234C\350\013\013C}A\242B\304\035\300B\014\372\206A\217\270\035B}A\021C\271\243VC\326\224\035B\2255)BS\026\265C\350K\305C\203\236vD\255\351\201C\233\262\206@\030\364ACMY\030C\000\300\232C\233\262fC\241o\312Cq\207\240C\247,PC\022\267\201CG\334\345B<\342\016@0(\225C\342\216*B\203\276\371B\334\021\214B*k\312>\211;eC\364\005\334C_\320\357B*k\300C\334\021\210Bw\304\332CG\\\013C\304\235IC\203\276dB\006\375\256CMY\021B\356H\372CSV3C\312\232\034B\000\000\000\000\356\210\211B\241/\267BA_\313C\022w\244BA\237\213C\006}\266B\334\221UCw\304\241A\356H\266CMY\264B\277\240\232Ce\315~C$noC\271\243\rCw\304\007BqG\313B\320\227\200C\000\000\362B\2255\230B\036qgA<\342nB\000\000\000\000\326\224\206BYS8CwD\026D\233\262\247CA_3C\255\251<C\233\262\026A\030t\025C*k\332@\277\240\353A0\350\335B\304\035\331B\320\227gC_\320\240B\372\202\235B\255)\"C\000\000\000\000\263f\355CYSDC\000\000\000\000\217\270\236B\271\243\023D<\342\026B\350\013:@\217\270NC\211;\002C*k|C_\320\253B\203>\010C\372\202OC\364\005\262Bw\304\352B\241/\310A\000\000\314A\233\262\332C\255)\333@\211;\262@\334\021eCG\334%B\2255gB6e+B\255)MB\030\364kC0\350-B\2255\305Cw\304\020C\000\000\300C\263f\202C\006\275\235C\022w\006C\326\224\272BS\326\320B\225\265:C}\301|C\006}UBe\315WCw\204\341CA\037\236C\263\246+C\247\254\204C\030\364\203C\036q\266C\350\313\276C\000\000\000\000\326\024\263CYS\346A\372B\251CqGvB\271\343\301C\255i\274C\364\305\212C0\350\234C\334Q\250C\233\262=C_P\237C*\353\210C\350\213\224C\356\310\307C\2255e@\2178\020C\263\246\334A}\301\200C\304]\271C\036q!B\320\027\243C\036q\237C\022\367\233C\000\000\000\000\241/\032BMY\274C\000\000\000\000\006\275\243C\217\270\251C\036q\262B$\356\313C\320\227!C\000\000\266C\000\000\000\000\006}\013C\203\376\220C\304\035\254C\247,%C\334Q\222C\000\000\000\000<\342>BS\026\306C\255)\221B\304\035\215B\334\321\234C\233r\212C_\020\300C\356\210CAG\334\025B\006\375xC\342\016/C\277`\215C}\301\234C\326T\254C\014\372\205C\271#n?\036q\243B\000\000\000\000\320\227KC\356\210\253@Y\023\230C\372\002$CS\326\244C*\353\250CG\234\245C\030\3644C}\301\232C\263\246\200C\006\375\nC\247\254\301CwD\240C\342\016\255C\217\270oC\2255\217B\304\235\302C*+\247C_PNC\233\362\253C\350\213)C\000\000\000\000\334\021~C\350\313\240C\372\202ZC\271\243\271C}\301\256C\356\310\266CY\323\240C\320W\206C\334\021\246C\022w\353BM\331\231C\277 &C\271\343\202C\263&\253C\014\372\002A\326\324\301C\233\362\232C\334\021\025C_\220\201C\350\213\241C\211\273kC_\220\234C\000\000\000\000\255i\242C\036\261\274C<\242\270C\014\272\266C\022\367\214C\036q\355BS\026\257C*+\216CY\323\226CSVyCA\337eCw\304\265C\233\262dB<\242\266Cw\304eCq\207\273C\000\000\000\000\334Q\272C\0361\203C\036\361\226C*kJ?G\334\256C\022w\237C*k@Bk\312\242C\342\316\211C\211;0C\000@\241C\277\340\236C\241/\264C\241\257yC6eEC<\"\255C\036\361\240C\372\002\204CYS\020CM\031\266C\277 QC\211\273\257C\211;9C_\320\275B\006}\314C_\320\321C\372\202\264CMY]C\036q{C\203>\213C\372\302\204C\342\216hC\304\235KC0h\025C\304\035\352B\241\257\233C\000\000\000\000YSnC\247,\026C\304\235\242C\241/aC\320\327\223C\000\000\000\000\364\005\256C\364\205qC\277 9C_\320\234C\014\372\014CYS\317B\364\005kB\372\202qC\217x\306C\022w\300C\203\276\247C\277 \211Cq\207\277Ce\215\261C*k\272B\320W\205C\241o\303C\000\000\217C_\020\251C<\342\016@\304\335\275CG\334\212B<\"\320C\014ztC<\342\245C\320\227\247Cw\304\235C\255)\224C\217\370\224C\217\270\336C\030toC}\301\242C\014\372\256CG\\\217C\030\364\216CYSuC}\301PC}AQC\000\000\000\000\312\232\377B\217\370\213C\000\000\000\000\217x\243C\364E\301C\342\016\242C\326\224\370B\241\257\016CA\337mC\334\021sCG\334\231A6e5B\364\005\254C\006\275\232C}\201\202C\014:\240C\277\240\225C\2255\313B\320\227nCG\234\232CY\023\203C*\353dC\364\005\303C\000\000\325C\271#mC\203>\017C6\245\315C\312\232$C\241\257\244CA_\267CA_\027C\233\262\216B\000\000\210Ak\312jA\271c\260CYSV>}\001\200C\271#\263CS\326mC\211\273%CM\231\263C\006\375\311C\247\254\331@\225\265\035Cw\204\264CY\323kC\036\261\215CG\334\247B_\320\263B\000\000\000\000\277\240\263C\263\346\212C\211;\310B\247l\245C\030t\207C_\320$CYSwC\2178\277C\000\200\267C\350\213\202C\342\216\244C\036q\257C\304\035\234C}ANC\000\000\000\000_\320\310B\2332\223C_\320}C_P\200CS\326\235C\036q\260B\342\316\205C\372\202\310B\263\346\235C\312\232fCwD\335C\277\2406Ck\n\217C\000\000\000\000\030\364dC\036\261\303C*\353\217C\320\027\244A_\020\217C\022w\303C\304\235\245C$\356tBSV\316C\014z}C\211;\303C6\245\246C\356\210\221B6\345\002C\334\021\233B\036qlC$n\037C\233\362\204C\0227\202C\304\235mC\2178\264C_\020\212C\356\210;?\203\276\307B\364\305\224C6e\324B\255i\253C\350\013\263C\263\246,B_\320.C_\020\244Ck\312*A\277 WC\022w\226C*\353\265Ck\312\014B\350\013\214C\334\021\260C\000@\211C\255)fC*\253\271C\277`\206C6%\247CG\034\232C\372B\267CMY\306C\233\262\016A\211;^C\263\246\305B\036\361\231C\022\267\234C\356\210{C\356\010\257C\030\364NC\350\013\235C$\256\235C\000\000\000\000\022w\004@q\207\203C_P\277C\006}\313B\350\013\201C\211;\240C\320\227lC\334\221\\C<\342\016=\263&lC\022\267\223C\022w\220A\271\243\243C\014:\270C\241/\213C\006\375\253C\255)\212C\342N\246C<\242\246C\334\221aC\211\273?C\211\273KC\271#nC\350K\234Ce\315vC\2178\257C*+\256C0\350oCwD\302C\350\213\215C$\356\200A0\350mB<\342\302CY\323\300C\006}1C\312\232\265CM\231\200C\350\013\240C\304\035\260B\022w\364@\014:\214CY\323CC\000\000\000\000eMSC\014zmC\241\257\250C\014\372QCYS\020C\304\335\271C\263&rC\277 \241C\030t&CkJ\235C\014\372\241B\006\375\240C\247,+CM\231\266C}\301\235C\241\257\267C\203>mC\233\262FA\0304\206C\356H\305C\217x\314C\263&DC*\353\233C\255\351\240C}\301=C\320\027xC\2255EC\030\364\371B\000\000\000\000\364\0051B<b\245C\241\257>C\342\316\213C\014zsCqG\013C\277 +Cw\304sB<\".D\217\270\243AA\3379D\241\357\345C\3207\"D\364\205!D\006}\331A\364\005iC\247,0D\320\327\265C\263\346\200C\342\216lCYSDBk\312\221C\030t\224C0h\250C\334\021\207B\247,+DA\337!CYSpB\000\000\000\000\247,!D\304\335\345C\320w>D\233\3625D\263\246\032BA_P?kJ\252C\006\3354D\304]0D\255)iB\022\367\213C\022\267\247Cw\244:DSV\241C\241O\037D\022\267\376C\277\240tC\2178[C\241/QC6\205$D\211\273\014C0\250\014D\006\375xC\372\302\223C*\353\240C\030\364@C*k\241C*+\216C\233\362\245C*k}C\342n\022DA\237\213C\241\257\224C6\2456Dk\312:@\271#{C\342\216\227C\247\254\353B\241/\350B\000\340<D\211\3733D*k\207B\211\373\257C\356\350\033D0\350\003A\022w;C\2332\261C\247\254\234Ce\255*D\000\000\000\000\255\2114D\350\013\033D\0304\312C*k\352Ae\315;C\334\221\226CeM\031@\217\270\031B_P\240C\225u\262C\036q\373B_\320\034D\000\000\000\000\036\261\325C\350K\333C\036\361\200C$\016*D\326\024QCq\307\241C\350\013Z@k\352\034D\364\005MC\233r\341C\241\357\262CeM\245A\255\2116D\211;:BMY\013B\203\276\324A*\253OD0\350wBe\315\265C\211\0337D\241\257@C\000@\353C\350\0136B\241\357\206CY\223\256C\326\2245@G\034\207Cq\007\213C\364\005\225C\350\2131C\263\246\242C\022w\233CY\323&DMy5DY\223\263C\036q\267A\320\027*C*K\004D\211\233/D\217\370\277C\000\000\000\000\372\002\037C\030\224\006DY3GD\342N\035DS\326PB*k\212C\030\364\300BA\037\256C\372\202\242B*\013.DA\177\025D\277\340\300C\203>wCMYEC\000@\nD6e\252C}A\037C\014\372\272A<B\037DY\2630D\233r\251C\271#n=\304\335\264CYSfA<\342\236@_\020,D<\202\rDqG\034@\263\246\251C\203\2766D\364\305\264C\036qG?\334\021\213C\350\0136B\372\302\370C\225\265\273C\312\0323Ck*TDw\304\205A\342\016HC\241/\010@\203\276\240?6\245\327C\022w+D\334\021\253A\217\270\375B\342\356>D\342\016\030CG\034\277C0h\243CG\234\206C\372\202>=q\007\246C\247\254$D\241/\227Cq\207\337Ck\n\345C\372\002xC\036Q\023D\334\021@D\372B\250CMY\305C\277\3002D\000\000\000\000\030\364-AA\037\274C\320\027\\A\225\265\216C\271\243 D\372\202\276=S\326\334A\217x\350Ce\315?C\217\270\023A\277\240\027A\22553B\211\273/DA\3371C\217x\261C\217\270\034C\0227\214C\203>\211CM\331BC\277\300)Dk\312\352@\014zMC\271#n=$\356\243C*kpCe\315(De\215\221Cq\207\304C\203\276!D\326\224qB0\3507B\2332$D\255)\320BA_\314A_\220\217C\000`\016D\247l\251CSV\340C\304]\026D\334\0215D\372\202\234C\211\233\036DM\2719DG\334\221?\000\000\000\000*\253!D\356\210\245C*\353+D\036\261[D\326\224\211A\036qG?\211;\306A\241o\206C\217\270\275C0\250\271C\21789D\263f\262C\014z>C\334Q\277C\372B\231C\225\265XCw\204\311CG\334GC\277\000YD\304]\323C\000\000`@$\356AC*\213\007D\304\235\253C\277\240\233C\233\262\366@\320W\223C\255)6CeMY@\036q\207?\006}\023B$\356\266C\211[2De\3153D\203>\222C\203^JD\326T\223C\2255\247C\036q\367B\342.WD\000\000\000\000\277\340\340C\271\243TC\255\251\245C\247\2140D\326\024+D\014zQDw\3446D\203\276\256C\225u\206C\342\216\030@\247\254VCG\334\221CY\363!D\364\305\237C\000\000\000\000\217\270gB\342\216=C\241/,BYs\037Dwd\023D$n\317C0h\323CMY\323A\326\324\242CA\237\242CYs=D6e\261C\0361\321C\211\273\325CMy3D<b\216C\000\000hCYSMCY\023\036D\203\376\205C\225\365\222C\263\346\016D}A\327A\217\270$C\022\367UD\312Z\361C\217\370VDk\312TCqg*D\241\0179D\030\364-C\326\024\027C\364E\210C\334\321\202C\334\021nC<\342\253C\271#\330C6E+D\233\3221D\271\243wCA_\264B\225\265CD\320\227cCw\304\035?\006}UB\312\232\222B\334\021\237B\000\000\000\000}A\250B\233\262\311C$\356BB\211[JD\334\361\022DkJ`C}\001\343C\014\372\226Cq\307>C*k\247C\030\3648D}!)D\203\376\357C\2255\375A\271\003&D\263\246\234C\334\021\347C\356\210\272B\304\035\261?6%\226CSV\266C$\356\010Ck\312\021C\271#\306AkJ2D\203>\270C\350\013\200Cw\304\221AY\023\371C\036\361\242C\225u\253C<\242\210C\356\210\'D\277\240\207B\356\010hC\225\365\302C\304\235\225C\000\000\000\000<b\243C\334Q\226CMYJD_\320\014C\271#\'DG\334=C\2255\301Bq\307$D\304]\207C\036q\217C\364\205gC\263\246\325BqG\246B\342\016\301C\014Z\032DM\371<D\006\275\301C$n\220C\030\364uC_PmC\255\351\263CS\226\266C\000 6D\233\262RB\342\216\016D<\342!D\372\202\345C\225\265\247C\241\357=Dw\004\214C\255\t3D\000\000\000\000<b\230C\372\202`B<bpC*\3534D\342\216\030@\263&\265C\312\232\236B\014\372\200C\247l\234C\350K\201C\356\210\200C\000@\237C\277`\036D\030\364\"D\022w\004@\036qG?0hjC\2178MC6eOC\0361\202C\0304\345C\247\354\334Ck\352#D\006}!C\350k\033D\372B\210C\342\316\213C\364\005\325A\0304\213C\006}uB\372\002\200C\247,-D\304\3354D\364\005\332B0\350|C\263\206(D_\360\tD\030t\327C$n\216C\014\372\022A\372\202\266A\304\035\211Bq\307\253Cw\3446D\255\351\251CS\326\350A\006}AA\225\2656DeMQB\356\310\300C\233\222\022D}\301\304C\006}\027C\277\240\370B\241\2177D}\201\230C\030\364\305?\000\000\000\000\022w\366B<\342\016?\014\372\211C\312\332\211CY\323\362C\277\0007D6\345\206CSV\006D\225\265\025C\203\276\000@\022\327\032D\320\027|C\271#\236C\304\335\266C\022wVBem(DG\\qCqG\260B*k\327C\2178\232C_\020\216CM\231\016D\014\372\016C\022\267CD\000\240+D\312\3324D\312Z6D$\256\250C\304\235\221C\000\000\274C\0361\334C_\220\323C_\320\247@\271\243AD\356\210?CA\337(D_P\323C$\256\264C\326\324\202Cw\004\356C\277\340\320C\271\243FC0h\231C0\310.D*KID\233\262\246>kJ}C\277`\235C\000\340\031D\342\216\256B\211\2733D\203\376\340C\030\364\301AqG|B\233\262\246BS\3268Bw\304\035A\326\224\241C\255\t\034D\342\316\261C\2332sC\364\0053B\3341FDS\326?DM\231\326C\342\216pCk\312\014B\364\005,DS\366SD\036Q\026D6%7D\263&1D_\320kCM\231\207C*kJ?\334\321>Dw\304{C\036q\252B\211\373\234C\372\002@C*k\010D\277\240\307B\241/\211C\326\224\271CM\371\014D\3341TDeM\273B}\301\005C\000\000\000\000\2178|C\022W\004D<\342AC<\242\200C\304\035_CA\037\263CSV\034CA\1770D\350\013\250C\304\035\017C\241\257PD\211;\023C\271\243\237C$n\251C\255)\236B_\320-B\233\262\005C<\242\246C6\345 D\350\013\rCG\234\207CY\263@D\247\254\351?A\237/Dq\307\356C6\345&DeM%D\211{\364C\372\302MDYS.C\241/\350?\2255\003C}aHDMY\230C\000\000\000\000\000\000\000\000\263\246\356B\247l\270Cw\244CD\241\2578C\263\306#D0\350\'B\036\361IC\030\364\"Dw\304\035A_\220\205C\312\232\246C\312\232\306B\247,\251Cq\007\nDA_hA\364\245(DM\331CC\372\002\202C\277 4D\217\270\334Bw\304lC*\353:Ck\312\226B\326T:D\022w0B\334\021\313CG\234\214C\203\276\240?G\034\035D}\301\251C<\342\265C\036qG?\247\254\275C\334\361<D\364\005\344B\030\364VD*\353\356C\030\364VD\000\000\000\000\312\032\\C\271#\337B\312\032\302C\030T7D\364\005\225B\342\216@A\312Z\235C*\013.D\263\246}C\304\335\036D\334\021.C\364\005ZD*\2138D\350\013\251B\036q\211C_\020\252C\225\265\376C\225\365>D*K!D\312\232\262C<\342\263C\217\370\316C\211;:DA_)C\233\362\360C\312\232\312A\0227MD\217\270\005C\014z>CY\323\027CG\034\250Cw\344(D$\356\"C\312Z\356C\233\362\206C\271#\224B\030\364wC<\302\'D\326\324\257C\255);A\364\005\037C\320\027gC\255)\033C\304},DY\323#CA_\354A_\020\214C\350K\312C<\342\233C\304\235fC<\342\374C\036q\214C_\360+D}A\224C$\356%D}A\213A}!)D\372\202\245C\312Z\323C\000\000\000\000\022w$@\334\221\246C\203\276\344B\334\2619D\000 5D0\350$C\334\021\267CMY\356C\263\246dC\217\270?C\0361\213C\217\270_B\277\240*D\263\246\033C\225\265\256C\364\005eCS\226#D\350\013z@\022\3673C\326\224\222Cw\304\035?\255)\256CG\034\200C\006\375\375C\312\232\274C\342\0167D\312\332\253DS\226\225C_\320\253A_PzD\030\244\261D\271C\242D\342\016\257CA\337PD\320\0271D}A\367A\217\030\027D\225u\271C\263&\230C\304\0351@S\226[D\255)\300C$\216\024D<\"\236C\000\300\344C\225U\010D\277@\274Dw\004\276C\342\216\230B_0\tD\000\200lC\277`\370CMYeB}\001\276C\320W\306Cq\307\256C\225u\275C\241o\026DG\274\005D_09DM\231\225D\350\013\tC6e8D\271\023\333D*\013SD*\013QD$n\266CS\326\205De\255\002D\211\273_C\356\210\341C\342N\255CkJsC\211;\310C\326\224MB\334\221\213C}\301\242C\217\270\275C\334\021\277C\312\352\260D*;\273D\334\321\252D\036\261\264C\342\016<DY\223\276CA\237\226C\000\300\235C*\013\026D\014\272\277C\2332(DA_\220?6e4C\271#~A\030t8C\356\210\263B\030\264\241C\233\362\277C\247\314\027D\241/FD$\256zD\271c\271CA_@D6%\237C\342NID\326T\346C\241/\223B\277\340\224C\022\267UD\350K!D\326\324\276C\233\222TD\255\311\037D6e\237B\334\321\321C\326\264\026D\2178\275C\364u\255D\217X\000D\271c\346C\036\321QDG\\$DwD\363Cq\207\006D*khC\014\372\333D\342\256\037D\334QDD}!GD\233\262\375C\263\346\300Dq7\231Dw\004\276C\372\202pC65\236D}\241DD\271#.A\2332EC\334\021.C\000\200\001C\334\221\362C0\250\275C\241o\237C}\001\372C\036q\267AY\223\256C*+(D\271\343\300CMY]B\304\335\010D\233\262\010BY\223$DS\026\206Cq\207 D\350\013mD$N\017D\203~\300C\304\235mC$\356\274B\225\2252DqGnBSV\215D\022w\270C\356\010aC0H\226D\022wxD\006\355\212D<\342\362B\312\232\nC\3264\257D}azD\255\211\014D\350\213\nD<\"\200Dk\212\303C\233\322\277D*k\276CG\\TD\334a\240D\263\246\224B\320\367PD\372\002,D\000\000\317C\241/7C\211{\256C*\253\303CG<\313D\2178\255DM\331\tD\326\224qBe\315^D0\250\225C\326\224\244CM\031\276C\022w\243C\006\275\236C\271#dBS\026RD_p+D\342\216\314C\326\024\277C6%\034D\372\302\333CS\326\024@\006=\361C<\342\326B\364\005\201A\000\340@DS\326\273C\000\340\002D\372\"\272D\271#\310C\320\027\361C\006]\214D\304=\001D\006=\261Cw\304\371A\263\246 BY\023\314D\0304\273C\334\221mCk\312\033CY\323SC\3341+DA\337)D\203\036\030D\006=eD\211;\367C\014:\005D\014:4D<\"\372CSv\017D\304]\255C\036\221\024D\277\240\237C\014\372\240B\342\216>C6e\027C\277\240\233B\241\257\340C0HFD\356\210YCM\331\275CeM\362C\312\032\032D\263\246BDY\223\357CM\331RD\277\240\'C\006\275\007D$\376\326D\277\240\002C\241o\215C\304\375\214D\271\203\214D6\205/DS\326\275C\334q)D\277 \237C\247\254\275C\233\222\021D_\300\246D\304\235PCw\264\277DA\377\022D\271c\356C\312ZMDY3\014D\030\364\275C\217\370\275C\225\225^D\3264xD\271#\315Cq\007\351C\203\376\337C0(\320C\036\261XD\225UYD\225\365BD\241\017-Dq\347\035D\372r\216D\014\372\252A\271\243cD\304\035\204B\225USDA_\002B\342\216zC\2178qC\372\242\211D\364E\342C\263\246\014@\372\202\247C\241OTDA_$D\2332\003DG\334\031C\030\024\017D\364U\212D\255Y\214D\277\240\021D\006\275\200DG\334\203B\271C]De\215*Dk\312\033C\263\246\210AYC\223D6e\273B\255\351hDe\335\210D\000\000\000\000A_\nD\2255\343B\241\257`CqG\355B\030d\207D\211\313\215Dq\007;D\247\254cCe\315NC}\321\201D\203~TD\217x\277C\350\213qDw\244\207D\233\222\201Dw\004lD\014\372\000D\217\270\212D\247l\252C\356\210nC\203\356\204D\022\267!DA_\242B\372\202\276=A\037\202D\271#\370C\203\276tD\342\216NC\203>\200C\233\002\231D\022wRBG<fD\000\000\376BYS\216B\304\235\364C\304\035\021@\233\202\207D\241O\200D\304\335\256C\356H*D\000\320\200D<\202,D\000\200\007D\211\373\036D_\260\020D\217X\036DS\326*C\247llD\255\371\203DkZ\203D\241\257\212D*\033\203D\036\321mD\334\021\223C\320\027CC\241\257\212C\000\000\000\000\233\022\007D\364\005%A\247\354\241C\364\005SB\036Q\\D\211;\362C\203^sDS\266\207D\014\372^C\000\000\000\000\203\2764D\000\000\000\000G\\:D\320\327\202D0\350\013@\372\222\211DS\326\202D\342\316\205D\014zUC\225U\214Dw\204\206D\241\257gDw\004HD\372\202\276>\217x\376C\203\376\032D\312:0D<\342\200C\326\324\357C6%(D\320g\220D\211;\271B\312\372]D*kj@\233\2226DS&\237D\241\217VD\203\276\224B\233\362\224D$\016\034D\2255gD\277@\tD\030\364sD}!\205D\304=^Dkj\013D\255)*D\312\032\234CA_P?\247L\212D\241/\256C\000\000\000\000\255\251\355C\350\033\201D\304\235\204D\334\361`D\014\032.D\277\300\215D\203~\037D\255Y\203D\334\021\206D\304\335\005Dw\244\210D\320G\202D\000\340,D<\342\323C*\253\364Ce-JD\372\202>?\036\361\215D\233rgD\356\210jDMY\363A6\245\021D\364\205\367Cq\007\020De\315RC\304\035xCY\223tD\014\332bD\255)\'D\271cgD\356hdDqG\254B\241/\310AG\234\204DMY\020D\000\000\000\000\326\364lD$n\005D\364EyD\312\332\247CA\037\224D\255)\205D\006}vD\225U^D\271#$D\271\023\210Dq\'DDG\334\357C\326TkD$\016\201D\350\213\025D\000\000\000\000\000\2002C\304]qDe-\203D\036\021\203D\000\000\212D_\220PD\304\375\014D<\322\213D\247\254)A\342\016\336C\000\000\000\000\241\277\210D\304\035UC\006}\'B\255\311`D\350+]D\006\375,